<pad>	0
<unk>	0
<ben>	0
</ben>	0
<mask>	0
<cls>	0
<en>	0
</en>	0
▁t	-0
▁ক	-1
he	-2
▁a	-3
য়	-4
ার	-5
in	-6
▁স	-7
re	-8
▁আ	-9
▁এ	-10
▁প	-11
▁ব	-12
▁the	-13
্য	-14
on	-15
ের	-16
্র	-17
▁w	-18
er	-19
▁s	-20
is	-21
at	-22
▁ত	-23
▁ন	-24
ou	-25
nd	-26
ান	-27
▁হ	-28
▁কর	-29
▁c	-30
it	-31
্ত	-32
▁o	-33
▁ম	-34
en	-35
an	-36
ed	-37
▁b	-38
▁f	-39
or	-40
es	-41
▁দ	-42
▁অ	-43
▁p	-44
▁d	-45
▁m	-46
▁A	-47
▁h	-48
▁to	-49
ing	-50
েন	-51
ll	-52
▁I	-53
য়ে	-54
▁of	-55
টি	-56
▁in	-57
িন	-58
as	-59
ar	-60
তে	-61
▁জ	-62
▁th	-63
▁য	-64
বে	-65
কে	-66
▁আম	-67
▁T	-68
▁প্র	-69
al	-70
▁n	-71
ছে	-72
▁is	-73
▁l	-74
ic	-75
▁and	-76
ion	-77
র্	-78
om	-79
রা	-80
াল	-81
িক	-82
ot	-83
▁y	-84
▁B	-85
""	-86
▁be	-87
ve	-88
le	-89
▁শ	-90
ায়	-91
▁এক	-92
▁ভ	-93
▁চ	-94
ent	-95
টা	-96
▁বি	-97
াম	-98
▁গ	-99
িল	-100
ut	-101
▁re	-102
▁e	-103
▁g	-104
id	-105
st	-106
▁you	-107
্ব	-108
▁উ	-109
াদ	-110
িত	-111
▁The	-112
াই	-113
লে	-114
▁নি	-115
ড়	-116
ow	-117
▁S	-118
▁না	-119
ver	-120
▁সম	-121
▁ও	-122
▁it	-123
ay	-124
্ট	-125
im	-126
▁এব	-127
ct	-128
et	-129
ad	-130
্যা	-131
▁এবং	-132
▁করে	-133
am	-134
▁H	-135
▁on	-136
্ষ	-137
▁পর	-138
ুল	-139
▁for	-140
তি	-141
াস	-142
পন	-143
ন্য	-144
▁he	-145
ro	-146
▁কি	-147
▁র	-148
থা	-149
▁M	-150
il	-151
▁that	-152
us	-153
▁আর	-154
▁C	-155
▁W	-156
▁খ	-157
▁ha	-158
ছিল	-159
ন্	-160
▁দে	-161
নে	-162
▁তা	-163
ce	-164
▁are	-165
▁সে	-166
▁was	-167
ুর	-168
ir	-169
ill	-170
▁st	-171
ation	-172
▁বা	-173
▁we	-174
য়া	-175
ly	-176
ig	-177
▁আপন	-178
▁আমি	-179
▁এই	-180
ld	-181
▁ই	-182
▁ফ	-183
▁an	-184
▁পার	-185
োন	-186
▁not	-187
ter	-188
ur	-189
▁ল	-190
থে	-191
▁But	-192
্প	-193
ch	-194
াব	-195
▁তার	-196
াদের	-197
▁And	-198
▁P	-199
ক্ষ	-200
..	-201
ন্ত	-202
ুন	-203
▁wh	-204
▁this	-205
▁(	-206
oo	-207
▁হয়	-208
িন্ত	-209
se	-210
াত	-211
িয়ে	-212
▁হয়ে	-213
▁জন্য	-214
ির	-215
িনি	-216
েশ	-217
▁কা	-218
▁একটি	-219
স্	-220
ক্ত	-221
her	-222
if	-223
ith	-224
ul	-225
▁কিন্ত	-226
▁have	-227
কার	-228
েল	-229
▁""	-230
চ্	-231
all	-232
▁do	-233
▁যে	-234
াবে	-235
▁কিন্তু	-236
▁D	-237
ol	-238
ak	-239
▁with	-240
▁ne	-241
pp	-242
▁রা	-243
out	-244
জন	-245
োগ	-246
ra	-247
দের	-248
ছেন	-249
▁সা	-250
ঙ্	-251
▁করা	-252
▁সব	-253
est	-254
▁se	-255
▁k	-256
▁বল	-257
েই	-258
▁আমার	-259
▁কোন	-260
িস	-261
ist	-262
th	-263
▁will	-264
ার্	-265
op	-266
un	-267
▁N	-268
▁ব্য	-269
▁করতে	-270
ri	-271
▁at	-272
▁ঘ	-273
▁as	-274
দ্	-275
খন	-276
গুল	-277
▁।	-278
▁He	-279
▁de	-280
ge	-281
▁con	-282
▁পরি	-283
▁can	-284
ain	-285
▁com	-286
▁জান	-287
ant	-288
▁হবে	-289
ছু	-290
ers	-291
ধ্য	-292
▁1	-293
▁pro	-294
গে	-295
▁has	-296
our	-297
▁ধ	-298
▁al	-299
ment	-300
ষ্	-301
ore	-302
▁থে	-303
▁me	-304
ছি	-305
▁থেকে	-306
▁তো	-307
▁ড	-308
না	-309
res	-310
বার	-311
ate	-312
ht	-313
▁R	-314
বি	-315
▁ছিল	-316
▁"	-317
▁যা	-318
ানে	-319
▁এর	-320
very	-321
ess	-322
্ল	-323
▁Th	-324
তা	-325
▁তিনি	-326
▁G	-327
ble	-328
▁wor	-329
ীয়	-330
াহ	-331
▁F	-332
▁দেখ	-333
▁থা	-334
nt	-335
▁উপ	-336
রে	-337
কা	-338
▁কিছু	-339
▁It	-340
▁সং	-341
ould	-342
য়ার	-343
art	-344
os	-345
▁পা	-346
and	-347
ac	-348
rom	-349
▁ex	-350
▁আমরা	-351
▁su	-352
▁ছ	-353
qu	-354
▁ch	-355
নি	-356
ুম	-357
▁all	-358
▁v	-359
ort	-360
দ্ধ	-361
▁দু	-362
ia	-363
▁এটি	-364
ারণ	-365
িশ	-366
pe	-367
ust	-368
▁E	-369
্ন	-370
od	-371
▁2	-372
স্ত	-373
ity	-374
▁তবে	-375
▁L	-376
ice	-377
▁or	-378
um	-379
▁ভাল	-380
one	-381
্ম	-382
ime	-383
▁খু	-384
▁বিশ	-385
▁অন	-386
▁your	-387
▁আপনি	-388
▁sh	-389
▁r	-390
red	-391
বা	-392
ome	-393
ষ্ট	-394
▁from	-395
ভাবে	-396
ight	-397
▁Y	-398
▁Wh	-399
so	-400
▁sa	-401
ারা	-402
নের	-403
ive	-404
▁u	-405
ally	-406
▁প্রতি	-407
মন	-408
▁go	-409
▁"""	-410
ত্য	-411
িতে	-412
▁এটা	-413
▁অব	-414
▁so	-415
...	-416
▁us	-417
ong	-418
now	-419
ওয়া	-420
▁by	-421
▁ab	-422
▁আস	-423
▁ট	-424
▁সু	-425
▁K	-426
▁হয়েছে	-427
ন্দ	-428
ies	-429
▁আপনার	-430
ুক্ত	-431
▁O	-432
▁ব্যব	-433
র্ত	-434
el	-435
▁আছে	-436
্রে	-437
em	-438
▁আমাদের	-439
▁been	-440
▁বেশ	-441
▁কে	-442
ear	-443
ry	-444
▁মধ্য	-445
▁কাজ	-446
মা	-447
্রি	-448
ুরু	-449
ীর	-450
ud	-451
্ড	-452
▁know	-453
iv	-454
দি	-455
ie	-456
▁j	-457
▁অনে	-458
ood	-459
▁স্ব	-460
ত্ত	-461
ame	-462
েয়ে	-463
▁there	-464
▁J	-465
▁pl	-466
▁সময়	-467
▁মান	-468
ost	-469
স্থ	-470
▁মা	-471
▁কথা	-472
▁নয়	-473
▁any	-474
▁what	-475
▁U	-476
ast	-477
লা	-478
▁বলে	-479
▁-	-480
▁সম্প	-481
াগ	-482
্স	-483
চ্ছে	-484
▁were	-485
▁অভ	-486
ard	-487
কি	-488
ik	-489
্রী	-490
fe	-491
▁one	-492
▁নিয়ে	-493
▁no	-494
▁time	-495
েষ	-496
লো	-497
হার	-498
ther	-499
ci	-500
্যান	-501
যোগ	-502
▁my	-503
▁অনেক	-504
▁said	-505
▁খুব	-506
▁also	-507
▁মধ্যে	-508
▁We	-509
ান্ত	-510
▁তাদের	-511
াড়	-512
পর	-513
cc	-514
▁about	-515
ঙ্গে	-516
▁স্	-517
▁“	-518
▁his	-519
্চ	-520
জ্	-521
▁ঘট	-522
ide	-523
বেন	-524
▁they	-525
ook	-526
ang	-527
▁কী	-528
▁This	-529
ধান	-530
▁pe	-531
খানে	-532
োর	-533
াপ	-534
▁le	-535
াকে	-536
▁পারে	-537
▁বিষ	-538
ডি	-539
▁নির্	-540
▁Ind	-541
ure	-542
▁১	-543
ction	-544
▁রয়ে	-545
▁All	-546
▁ব্যা	-547
▁সহ	-548
ind	-549
মান	-550
ople	-551
▁করার	-552
▁You	-553
▁অন্য	-554
ab	-555
ah	-556
oug	-557
ag	-558
▁নে	-559
▁নেই	-560
▁did	-561
জে	-562
▁In	-563
ays	-564
▁থাক	-565
ake	-566
▁ag	-567
ূর্	-568
▁অনু	-569
▁There	-570
▁কো	-571
▁them	-572
▁lo	-573
মে	-574
▁বিশ্ব	-575
ous	-576
▁সঙ্গে	-577
▁don	-578
▁পড়	-579
▁মু	-580
pt	-581
▁করেন	-582
"""	-583
তো	-584
▁very	-585
▁im	-586
▁te	-587
▁সাথে	-588
েস	-589
▁মনে	-590
রণ	-591
▁তাঁ	-592
▁comp	-593
▁ভার	-594
ated	-595
▁এখন	-596
▁work	-597
ালে	-598
ue	-599
্দ	-600
▁other	-601
▁.	-602
▁man	-603
per	-604
▁রয়েছে	-605
are	-606
ন্ধ	-607
▁Ch	-608
▁কেন	-609
ৃত	-610
ীব	-611
ack	-612
▁res	-613
▁people	-614
▁কারণ	-615
ary	-616
▁দিয়ে	-617
▁want	-618
▁ক্ষ	-619
▁যায়	-620
▁more	-621
ult	-622
▁had	-623
▁What	-624
জ্ঞ	-625
ber	-626
▁am	-627
ount	-628
▁করি	-629
▁ভালো	-630
port	-631
00	-632
রি	-633
▁'	-634
te	-635
age	-636
ine	-637
ace	-638
▁ar	-639
ree	-640
▁him	-641
▁একটা	-642
ink	-643
োক	-644
▁হতে	-645
ষ্ঠ	-646
▁qu	-647
▁২	-648
ike	-649
গুলি	-650
fter	-651
▁শু	-652
রকার	-653
▁কম	-654
ুষ	-655
▁inc	-656
ite	-657
েছে	-658
▁তারা	-659
▁ad	-660
ঙ্গ	-661
▁tr	-662
ase	-663
ian	-664
িয়	-665
াত্র	-666
▁up	-667
▁দিন	-668
ident	-669
▁এমন	-670
▁need	-671
র্থ	-672
▁out	-673
ater	-674
েত	-675
োট	-676
▁fe	-677
▁এস	-678
▁সেই	-679
েম	-680
irst	-681
ound	-682
থম	-683
পার	-684
রের	-685
চিত	-686
ংশ	-687
▁বছ	-688
oll	-689
▁tw	-690
ep	-691
▁happ	-692
▁মানুষ	-693
▁An	-694
▁like	-695
▁whe	-696
ail	-697
দিন	-698
ress	-699
।"	-700
▁দেশ	-701
able	-702
▁কোনো	-703
হা	-704
orm	-705
▁যদি	-706
▁করুন	-707
▁new	-708
লাম	-709
▁un	-710
▁ব্যবহার	-711
▁en	-712
."	-713
গুলো	-714
lo	-715
ip	-716
ূল	-717
▁সি	-718
▁how	-719
ions	-720
▁part	-721
েক	-722
ence	-723
▁গ্র	-724
ire	-725
▁হচ্ছে	-726
▁year	-727
ife	-728
▁ভারত	-729
গ্র	-730
▁pr	-731
ওয়ার	-732
শি	-733
ap	-734
ren	-735
াজ	-736
hing	-737
▁their	-738
du	-739
েন্ট	-740
▁হল	-741
▁How	-742
▁দি	-743
য়ো	-744
▁get	-745
▁who	-746
▁first	-747
ild	-748
▁pol	-749
▁তোম	-750
▁dis	-751
▁রাখ	-752
িক্ষ	-753
্যাল	-754
nder	-755
▁Al	-756
▁আল	-757
▁শুরু	-758
ations	-759
থ্য	-760
স্থা	-761
other	-762
▁every	-763
▁cont	-764
reat	-765
ich	-766
ূর্ণ	-767
▁প্রশ	-768
▁বিষয়	-769
▁As	-770
▁আই	-771
▁জীব	-772
▁app	-773
▁কার	-774
াক	-775
ough	-776
বাদ	-777
▁20	-778
▁They	-779
▁বেশি	-780
▁অভি	-781
ুত	-782
▁নাম	-783
aus	-784
ঠিক	-785
▁দ্ব	-786
জি	-787
iz	-788
▁two	-789
▁প্রথম	-790
▁India	-791
ish	-792
ec	-793
▁অস	-794
▁হিস	-795
ven	-796
ric	-797
▁চল	-798
ans	-799
ন্ত্র	-800
তুন	-801
য়ের	-802
কের	-803
ord	-804
▁some	-805
ne	-806
▁than	-807
▁বাড়	-808
▁নতুন	-809
টার	-810
ীন	-811
▁her	-812
▁উত্ত	-813
ষণ	-814
▁কোনও	-815
▁good	-816
▁here	-817
ুমি	-818
▁আরও	-819
ical	-820
▁but	-821
▁বু	-822
্ভ	-823
▁শেষ	-824
ck	-825
▁সাম	-826
লের	-827
টির	-828
▁too	-829
▁সেটা	-830
▁কাছে	-831
▁think	-832
ance	-833
▁our	-834
দেশ	-835
ister	-836
act	-837
ub	-838
ছিলেন	-839
▁3	-840
শ্চ	-841
প্র	-842
ক্র	-843
▁again	-844
▁পুল	-845
▁just	-846
▁under	-847
ory	-848
ond	-849
▁সম্পর্	-850
য়োজন	-851
টে	-852
িখ	-853
▁off	-854
বর্ত	-855
▁মো	-856
ach	-857
▁dif	-858
og	-859
▁বিভ	-860
▁cl	-861
▁St	-862
▁জন	-863
rent	-864
ings	-865
ass	-866
াড়া	-867
পি	-868
▁সত্য	-869
▁চাই	-870
মি	-871
▁তাই	-872
▁পারেন	-873
▁day	-874
োধ	-875
▁অ্যা	-876
প্ত	-877
thing	-878
▁then	-879
▁count	-880
ause	-881
ru	-882
বাস	-883
▁?	-884
িকা	-885
ানের	-886
ign	-887
ff	-888
▁does	-889
▁পুলিশ	-890
▁তুমি	-891
▁প্রধান	-892
▁sp	-893
▁acc	-894
▁would	-895
▁চে	-896
▁So	-897
form	-898
hed	-899
ুদ্ধ	-900
র্ব	-901
▁wr	-902
▁see	-903
▁সক	-904
শন	-905
ক্তি	-906
▁একজন	-907
▁over	-908
▁রাজ	-909
ক্ষা	-910
▁এখানে	-911
ition	-912
lic	-913
▁happen	-914
▁spe	-915
▁could	-916
▁নিজ	-917
▁বড়	-918
ুক	-919
ল্প	-920
▁per	-921
av	-922
▁স্থ	-923
ile	-924
▁At	-925
ial	-926
ধারণ	-927
itt	-928
oth	-929
vel	-930
▁which	-931
▁প্রয়োজন	-932
িয়া	-933
▁Sh	-934
▁যোগ	-935
ষ্ট্র	-936
স্য	-937
▁world	-938
▁লে	-939
াতে	-940
▁ইউ	-941
▁‘	-942
ন্ত্রী	-943
▁বলেন	-944
▁ser	-945
ever	-946
inister	-947
vern	-948
▁V	-949
িন্ন	-950
▁act	-951
ved	-952
▁মহ	-953
▁পর্য	-954
uch	-955
▁ডি	-956
▁বন্ধ	-957
▁int	-958
▁life	-959
▁করেছে	-960
tern	-961
▁ছিলেন	-962
▁সরকার	-963
."""	-964
▁তাঁর	-965
▁অধ	-966
চার	-967
▁should	-968
ত্ব	-969
▁say	-970
ons	-971
সা	-972
▁আগে	-973
▁gr	-974
▁Are	-975
স্থিত	-976
তার	-977
▁হাস	-978
▁আশ	-979
▁কখন	-980
▁if	-981
ple	-982
mer	-983
▁করেছেন	-984
▁pre	-985
ational	-986
ক্ষে	-987
oin	-988
স্ট	-989
▁ro	-990
শ্য	-991
ড়ে	-992
▁সম্ভ	-993
ওয়	-994
ied	-995
▁ঠিক	-996
▁থাকে	-997
▁Is	-998
▁বছর	-999
▁মে	-1000
য়েক	-1001
cial	-1002
▁ph	-1003
▁শিক্ষ	-1004
িকার	-1005
oss	-1006
ঞ্চ	-1007
▁পরে	-1008
end	-1009
ade	-1010
pl	-1011
ানো	-1012
▁bet	-1013
▁only	-1014
পে	-1015
▁No	-1016
▁আমাকে	-1017
ious	-1018
ঞ্	-1019
▁আগ	-1020
▁কয়েক	-1021
োল	-1022
▁She	-1023
িউ	-1024
▁ইন	-1025
▁তাকে	-1026
িব	-1027
ect	-1028
▁bec	-1029
vernment	-1030
▁কর্ম	-1031
▁বাস	-1032
িম	-1033
▁ব্যাপার	-1034
▁going	-1035
ষ্টা	-1036
▁well	-1037
▁টি	-1038
▁ছবি	-1039
্যান্ড	-1040
▁sec	-1041
ark	-1042
ংল	-1043
কম	-1044
▁বে	-1045
▁look	-1046
▁much	-1047
কাশ	-1048
▁যুক্ত	-1049
vers	-1050
▁many	-1051
তির	-1052
▁Un	-1053
▁pres	-1054
যুক্ত	-1055
েবে	-1056
▁comm	-1057
াঁ	-1058
ful	-1059
we	-1060
▁after	-1061
ily	-1062
ody	-1063
▁উত্তর	-1064
ath	-1065
▁these	-1066
▁শুধ	-1067
esh	-1068
▁বির	-1069
াস্	-1070
▁really	-1071
তিক	-1072
▁That	-1073
▁লা	-1074
man	-1075
▁19	-1076
ানি	-1077
ভাব	-1078
▁rec	-1079
▁police	-1080
▁fil	-1081
▁২০	-1082
ib	-1083
fore	-1084
▁প্রক	-1085
▁mo	-1086
▁rem	-1087
▁child	-1088
ible	-1089
▁she	-1090
▁অংশ	-1091
ীদের	-1092
▁গুরু	-1093
▁never	-1094
▁বৃ	-1095
▁পুর	-1096
র্ম	-1097
▁হই	-1098
ank	-1099
▁টা	-1100
সি	-1101
হত	-1102
▁diffe	-1103
▁কেউ	-1104
▁দুই	-1105
▁reg	-1106
ug	-1107
▁love	-1108
ates	-1109
ital	-1110
▁dec	-1111
চ্চ	-1112
▁didn	-1113
▁খেল	-1114
▁5	-1115
▁তখন	-1116
▁প্রশ্ন	-1117
সে	-1118
ning	-1119
ানা	-1120
▁rel	-1121
▁long	-1122
▁start	-1123
▁দেখা	-1124
ents	-1125
day	-1126
own	-1127
▁lot	-1128
▁its	-1129
▁তৈ	-1130
lp	-1131
▁back	-1132
▁গেল	-1133
নার	-1134
বল	-1135
ার্থ	-1136
ose	-1137
▁pers	-1138
▁লাগ	-1139
sel	-1140
গত	-1141
igh	-1142
চ্ছ	-1143
্বর	-1144
omet	-1145
▁প্রায়	-1146
▁right	-1147
মন্ত্রী	-1148
▁আপনাকে	-1149
ctor	-1150
alk	-1151
▁most	-1152
▁play	-1153
▁বুঝ	-1154
ঞ্জ	-1155
▁4	-1156
▁আজ	-1157
মাণ	-1158
▁রে	-1159
▁উঠ	-1160
aw	-1161
▁help	-1162
▁দেওয়া	-1163
লেন	-1164
▁তোমার	-1165
পূর্ণ	-1166
▁br	-1167
সম	-1168
▁অর্থ	-1169
পাত	-1170
▁bel	-1171
▁into	-1172
চে	-1173
▁আবার	-1174
ল্	-1175
▁তাহ	-1176
▁হয়েছিল	-1177
▁years	-1178
▁মি	-1179
▁Pr	-1180
▁ভাব	-1181
▁লোক	-1182
▁তথ্য	-1183
▁Minister	-1184
▁নিয়	-1185
aj	-1186
▁তিন	-1187
▁way	-1188
▁country	-1189
iss	-1190
▁take	-1191
্টার	-1192
ces	-1193
▁পর্যন্ত	-1194
ick	-1195
▁201	-1196
▁প্রা	-1197
োপ	-1198
▁উদ	-1199
▁same	-1200
ব্য	-1201
ited	-1202
▁মার্	-1203
ens	-1204
▁fam	-1205
ways	-1206
াদেশ	-1207
▁sc	-1208
▁ধর	-1209
ন্ড	-1210
blem	-1211
▁Com	-1212
োর্	-1213
ষ্টি	-1214
▁Ad	-1215
rest	-1216
ool	-1217
▁ট্র	-1218
▁মুখ	-1219
lad	-1220
িং	-1221
▁চাল	-1222
▁চেষ্টা	-1223
স্ক	-1224
xt	-1225
▁ভি	-1226
▁sm	-1227
▁when	-1228
▁still	-1229
ng	-1230
ন্ন	-1231
▁হলো	-1232
▁problem	-1233
ict	-1234
জার	-1235
ক্ষণ	-1236
▁stud	-1237
▁মূল	-1238
ually	-1239
▁মতো	-1240
▁পে	-1241
alth	-1242
ise	-1243
▁tak	-1244
ত্র	-1245
get	-1246
han	-1247
জা	-1248
▁ফির	-1249
▁সদ	-1250
্রম	-1251
▁inv	-1252
▁এতে	-1253
way	-1254
▁পারি	-1255
▁সহজ	-1256
হণ	-1257
▁আন	-1258
▁সবাই	-1259
▁quest	-1260
ীত	-1261
▁After	-1262
▁use	-1263
▁Bang	-1264
▁make	-1265
cted	-1266
oint	-1267
▁home	-1268
▁গুরুত্ব	-1269
▁Do	-1270
▁ছে	-1271
▁উপর	-1272
▁বিশেষ	-1273
ফল	-1274
্লাহ	-1275
▁নিশ্চ	-1276
▁ra	-1277
▁such	-1278
az	-1279
▁read	-1280
▁যেতে	-1281
েরা	-1282
▁চলে	-1283
র্শ	-1284
ities	-1285
▁সমস	-1286
▁করবেন	-1287
▁সর্ব	-1288
ather	-1289
▁বাংল	-1290
▁Be	-1291
চেয়ে	-1292
▁বিষয়ে	-1293
▁ক্ষেত	-1294
াইন	-1295
াধ	-1296
▁দিতে	-1297
▁tra	-1298
▁সম্পর্কে	-1299
িজ	-1300
▁অভিন	-1301
▁wom	-1302
▁সমস্যা	-1303
্যার	-1304
▁import	-1305
▁শুধু	-1306
▁আব	-1307
ange	-1308
▁স্ট	-1309
▁করবে	-1310
▁যাবে	-1311
▁সাধারণ	-1312
ছিলাম	-1313
সের	-1314
▁water	-1315
▁If	-1316
▁ind	-1317
▁জীবন	-1318
▁produ	-1319
▁বিভিন্ন	-1320
ased	-1321
ান্য	-1322
ft	-1323
ামী	-1324
▁att	-1325
▁একই	-1326
▁সবচেয়ে	-1327
▁গেছে	-1328
▁নিজের	-1329
▁তৈরি	-1330
▁med	-1331
▁great	-1332
▁নাই	-1333
▁person	-1334
▁ব্যক্তি	-1335
▁সম্ভব	-1336
ced	-1337
চনা	-1338
ward	-1339
oy	-1340
▁হিসেবে	-1341
wn	-1342
cess	-1343
▁অন্ত	-1344
▁মন	-1345
med	-1346
টের	-1347
▁পরিচ	-1348
▁num	-1349
ought	-1350
lud	-1351
▁বৈ	-1352
ener	-1353
▁আলো	-1354
▁জানি	-1355
▁মাস	-1356
),	-1357
▁add	-1358
▁অবশ্য	-1359
্যের	-1360
▁পরিবর্ত	-1361
খ্যা	-1362
▁ভা	-1363
ুণ	-1364
▁চেয়ে	-1365
ালের	-1366
বো	-1367
ন্দর	-1368
্দ্র	-1369
▁গিয়ে	-1370
The	-1371
▁দিকে	-1372
▁Ne	-1373
▁ঝ	-1374
গুলির	-1375
▁ওই	-1376
▁বাংলাদেশ	-1377
gan	-1378
▁somet	-1379
কারী	-1380
▁,	-1381
ীর্	-1382
বাচ	-1383
▁why	-1384
▁গো	-1385
▁অর্	-1386
▁bl	-1387
বর	-1388
▁three	-1389
urn	-1390
▁করছে	-1391
▁সত্যি	-1392
টাই	-1393
▁made	-1394
gr	-1395
riend	-1396
▁ele	-1397
থায়	-1398
▁প্রকাশ	-1399
▁come	-1400
কর	-1401
ull	-1402
▁দেখতে	-1403
▁state	-1404
▁নিজে	-1405
ladesh	-1406
▁ঘটনা	-1407
▁সালে	-1408
▁even	-1409
oc	-1410
▁film	-1411
self	-1412
▁শিশ	-1413
▁ম্যা	-1414
ৃত্য	-1415
▁বিশ্বাস	-1416
ুই	-1417
▁mat	-1418
▁এখনও	-1419
bs	-1420
▁হয়নি	-1421
ুলে	-1422
▁পাওয়া	-1423
▁আদ	-1424
ড়া	-1425
▁দিল	-1426
▁মাধ্য	-1427
▁Why	-1428
▁বলতে	-1429
▁উদ্	-1430
▁cons	-1431
েলে	-1432
▁case	-1433
air	-1434
ক্স	-1435
▁eas	-1436
ollow	-1437
▁des	-1438
▁where	-1439
▁সমস্ত	-1440
imes	-1441
▁যুক্তরা	-1442
িস্ত	-1443
ors	-1444
▁শহ	-1445
▁হলে	-1446
eng	-1447
▁being	-1448
▁যখন	-1449
▁পড়ে	-1450
▁উচিত	-1451
▁last	-1452
▁জি	-1453
ating	-1454
osp	-1455
▁inform	-1456
ual	-1457
▁দায়	-1458
ৎস	-1459
▁ক্ল	-1460
▁স্প	-1461
▁God	-1462
▁now	-1463
▁পরিবার	-1464
▁end	-1465
▁দেয়	-1466
any	-1467
ূপ	-1468
▁লেখ	-1469
stand	-1470
▁থ	-1471
▁আরো	-1472
্যে	-1473
▁বার	-1474
টু	-1475
ouse	-1476
ave	-1477
▁পেয়ে	-1478
ঁচ	-1479
▁ইতি	-1480
▁before	-1481
ডিও	-1482
ret	-1483
les	-1484
িড	-1485
ject	-1486
িতা	-1487
এস	-1488
ific	-1489
▁supp	-1490
old	-1491
▁includ	-1492
▁thr	-1493
নায়	-1494
ণ্ড	-1495
▁জানিয়ে	-1496
▁mon	-1497
mb	-1498
বেদ	-1499
▁করছি	-1500
▁must	-1501
বেশ	-1502
▁সাহা	-1503
ecause	-1504
▁বয়	-1505
▁পদ	-1506
ন্ম	-1507
▁However	-1508
▁few	-1509
▁against	-1510
▁sy	-1511
ffe	-1512
ুদ্ধে	-1513
▁ac	-1514
▁মত	-1515
▁10	-1516
▁তারপর	-1517
▁call	-1518
ower	-1519
▁দ্বারা	-1520
▁ev	-1521
▁ke	-1522
▁প্রদ	-1523
▁সাহায	-1524
ments	-1525
▁fl	-1526
▁fin	-1527
▁প্রস্ত	-1528
▁cour	-1529
hen	-1530
▁স্ক	-1531
▁সর	-1532
▁name	-1533
▁ইস	-1534
▁anything	-1535
▁place	-1536
্যাম	-1537
▁ent	-1538
▁পৃ	-1539
uring	-1540
▁পাল	-1541
ারে	-1542
ধা	-1543
▁book	-1544
▁always	-1545
▁তাহলে	-1546
▁may	-1547
ত্যা	-1548
▁বর্ত	-1549
▁Because	-1550
িস্ট	-1551
ীতি	-1552
ular	-1553
▁things	-1554
▁মৃত্য	-1555
▁আসলে	-1556
▁ask	-1557
▁op	-1558
▁used	-1559
▁...	-1560
▁অফ	-1561
ীল	-1562
rit	-1563
▁হিসাবে	-1564
▁!	-1565
▁ওয়ে	-1566
▁দরকার	-1567
▁অথ	-1568
▁ছোট	-1569
▁talk	-1570
▁family	-1571
uss	-1572
িনা	-1573
chool	-1574
াইল	-1575
▁ক্ষেত্রে	-1576
ph	-1577
li	-1578
▁পো	-1579
ared	-1580
istan	-1581
▁Indian	-1582
cy	-1583
▁follow	-1584
olog	-1585
▁উন্ন	-1586
ারের	-1587
▁১৯	-1588
▁লিখ	-1589
▁সেখানে	-1590
খান	-1591
▁Ab	-1592
▁bu	-1593
▁prov	-1594
াউ	-1595
ween	-1596
▁imp	-1597
ution	-1598
দ্র	-1599
েলা	-1600
▁দেখে	-1601
▁ধরে	-1602
iness	-1603
▁মিল	-1604
▁ভারতের	-1605
uth	-1606
▁দক্ষ	-1607
▁শে	-1608
▁bus	-1609
▁কত	-1610
▁thing	-1611
াইট	-1612
▁car	-1613
▁অপ	-1614
▁friend	-1615
▁got	-1616
▁অন্যান্য	-1617
ok	-1618
▁best	-1619
▁ভাই	-1620
▁ছাড়া	-1621
তম	-1622
ospital	-1623
▁দল	-1624
▁স্থান	-1625
ina	-1626
▁বলা	-1627
▁belie	-1628
ision	-1629
ert	-1630
▁Don	-1631
▁এত	-1632
▁6	-1633
oh	-1634
াস্থ্য	-1635
ছাড়া	-1636
ince	-1637
read	-1638
up	-1639
▁সদস্য	-1640
sw	-1641
velop	-1642
▁number	-1643
▁বই	-1644
▁সভ	-1645
ুগ	-1646
▁days	-1647
▁between	-1648
▁result	-1649
▁yet	-1650
▁lead	-1651
here	-1652
▁ব্যবস্থা	-1653
aug	-1654
▁poss	-1655
▁sit	-1656
▁সিদ্ধ	-1657
য়ন	-1658
▁চার	-1659
▁খুবই	-1660
als	-1661
শ্ব	-1662
hip	-1663
▁বিক	-1664
▁health	-1665
▁De	-1666
ics	-1667
ures	-1668
▁আইন	-1669
▁পাশ	-1670
▁Any	-1671
hi	-1672
▁লক্ষ	-1673
▁Re	-1674
আই	-1675
্রিয়া	-1676
▁through	-1677
▁serv	-1678
ove	-1679
▁My	-1680
▁হার	-1681
▁আশা	-1682
ote	-1683
▁sur	-1684
▁gu	-1685
রিক	-1686
▁কিছুই	-1687
▁পাঠ	-1688
ৃতি	-1689
ices	-1690
▁দুর্	-1691
▁হাসপাত	-1692
ার্ড	-1693
▁নিরা	-1694
োম	-1695
▁Ar	-1696
▁৩	-1697
▁Pol	-1698
ek	-1699
▁চিক	-1700
oun	-1701
▁বিরুদ্ধে	-1702
▁একে	-1703
▁children	-1704
▁নার	-1705
ty	-1706
▁dist	-1707
▁পরিচাল	-1708
বিদ	-1709
▁স্ত	-1710
▁এসে	-1711
▁down	-1712
▁own	-1713
▁Am	-1714
▁ডে	-1715
ায়ী	-1716
▁অনুষ্ঠ	-1717
▁মাধ্যমে	-1718
কাল	-1719
▁ভুল	-1720
▁sim	-1721
িত্ব	-1722
▁those	-1723
▁পার্	-1724
arm	-1725
▁শিশু	-1726
▁ঢ	-1727
▁meet	-1728
▁বাই	-1729
▁একটু	-1730
বাহ	-1731
▁report	-1732
ন্ত্রণ	-1733
তেই	-1734
ason	-1735
্ধ	-1736
▁পি	-1737
জাত	-1738
▁নির্বাচ	-1739
oney	-1740
▁ধরনের	-1741
▁exper	-1742
▁ear	-1743
▁হওয়ার	-1744
▁done	-1745
▁সাহায্য	-1746
ড়িয়ে	-1747
ash	-1748
der	-1749
▁i	-1750
ob	-1751
▁জায়	-1752
hes	-1753
▁কঠ	-1754
▁found	-1755
বস	-1756
ষণা	-1757
োস	-1758
▁যেন	-1759
▁নিশ্চিত	-1760
▁find	-1761
ivers	-1762
▁em	-1763
▁বহ	-1764
▁পরী	-1765
▁কিভাবে	-1766
,""	-1767
▁real	-1768
আম	-1769
▁মার্ক	-1770
ried	-1771
ving	-1772
ope	-1773
▁দ্র	-1774
▁inte	-1775
▁won	-1776
▁সম্ম	-1777
▁try	-1778
্রিয়	-1779
▁জানা	-1780
▁present	-1781
▁feel	-1782
▁মাম	-1783
▁inst	-1784
▁resp	-1785
▁অবস্থ	-1786
▁ter	-1787
▁জায়গ	-1788
▁করেছি	-1789
▁av	-1790
▁পরিবর্তন	-1791
pect	-1792
▁comple	-1793
▁থাকতে	-1794
▁offic	-1795
পুর	-1796
▁সুন্দর	-1797
▁অভিযোগ	-1798
ting	-1799
▁team	-1800
▁সন্ত	-1801
▁গত	-1802
ives	-1803
দে	-1804
▁দূ	-1805
▁His	-1806
▁high	-1807
াবেন	-1808
▁month	-1809
রাম	-1810
▁disc	-1811
লার	-1812
▁loc	-1813
▁post	-1814
▁body	-1815
▁Con	-1816
ষে	-1817
▁আত	-1818
▁নিরাপ	-1819
▁ভিডিও	-1820
ীতে	-1821
ভি	-1822
amm	-1823
▁জাত	-1824
েশন	-1825
▁মানুষের	-1826
▁লি	-1827
▁তে	-1828
arch	-1829
▁ভাষ	-1830
চ্ছি	-1831
land	-1832
▁ফিরে	-1833
▁kill	-1834
▁কারণে	-1835
▁New	-1836
rict	-1837
▁both	-1838
ix	-1839
▁7	-1840
▁ret	-1841
▁বর্	-1842
▁Both	-1843
ility	-1844
▁hand	-1845
গ্রহ	-1846
▁For	-1847
খে	-1848
▁tell	-1849
▁প্রতিষ্ঠ	-1850
বু	-1851
▁দেশের	-1852
▁vide	-1853
▁exam	-1854
▁iss	-1855
▁house	-1856
cept	-1857
▁বো	-1858
েনে	-1859
▁অবশ্যই	-1860
▁দুটি	-1861
▁Pres	-1862
ness	-1863
▁Pro	-1864
irl	-1865
টিং	-1866
মাত্র	-1867
▁ঘো	-1868
হাস	-1869
ised	-1870
▁Add	-1871
াদা	-1872
▁another	-1873
▁পান	-1874
▁পছ	-1875
▁পৃথ	-1876
▁কার্য	-1877
ai	-1878
▁requ	-1879
▁cent	-1880
ute	-1881
ata	-1882
দন্ত	-1883
▁pub	-1884
▁Wor	-1885
▁আল্লাহ	-1886
▁ভূ	-1887
▁ভয়	-1888
▁least	-1889
▁মেয়ে	-1890
▁আপ	-1891
▁করছেন	-1892
be	-1893
েন্স	-1894
urrent	-1895
▁question	-1896
ries	-1897
োজ	-1898
▁উচ্চ	-1899
▁answ	-1900
▁Eng	-1901
▁দৃ	-1902
ured	-1903
▁next	-1904
▁মাত্র	-1905
▁হন	-1906
stem	-1907
).	-1908
▁ব্র	-1909
▁গ্রহণ	-1910
ctions	-1911
▁জল	-1912
▁lar	-1913
এর	-1914
▁নিতে	-1915
▁doesn	-1916
▁nothing	-1917
ম্প	-1918
রম	-1919
eneral	-1920
▁develop	-1921
▁happened	-1922
▁min	-1923
▁বছরের	-1924
▁el	-1925
▁taken	-1926
▁হওয়া	-1927
▁মার্কিন	-1928
ুট	-1929
▁জাতীয়	-1930
▁সম্পর্ক	-1931
▁ধন্য	-1932
ভার	-1933
িতীয়	-1934
▁সকল	-1935
▁let	-1936
▁8	-1937
▁care	-1938
▁big	-1939
▁রোগ	-1940
সং	-1941
াবার	-1942
▁Comm	-1943
outh	-1944
▁কীভাবে	-1945
ows	-1946
▁det	-1947
কেই	-1948
▁money	-1949
র্ক	-1950
▁list	-1951
পনা	-1952
ording	-1953
আমি	-1954
▁বিপ	-1955
▁কেবল	-1956
▁যান	-1957
▁মাঝ	-1958
ines	-1959
ished	-1960
▁Every	-1961
ief	-1962
▁পাক	-1963
▁Tr	-1964
িল্প	-1965
▁fun	-1966
▁hum	-1967
iew	-1968
▁আন্ত	-1969
ral	-1970
তাম	-1971
▁চান	-1972
▁thought	-1973
ember	-1974
▁each	-1975
দা	-1976
aut	-1977
ুরি	-1978
▁করব	-1979
▁co	-1980
▁US	-1981
uc	-1982
▁later	-1983
▁dire	-1984
লি	-1985
▁second	-1986
্বে	-1987
িত্র	-1988
ুঁ	-1989
▁On	-1990
▁open	-1991
▁এছাড়া	-1992
ative	-1993
▁দ্বিতীয়	-1994
not	-1995
০০	-1996
্লি	-1997
▁এসব	-1998
iting	-1999
▁ধন্যবাদ	-2000
pr	-2001
্যাপ	-2002
▁school	-2003
pend	-2004
▁সপ্ত	-2005
▁Police	-2006
▁ফলে	-2007
▁চিকি	-2008
▁week	-2009
und	-2010
িণ	-2011
lam	-2012
▁Also	-2013
ission	-2014
akistan	-2015
▁Le	-2016
▁ভিত	-2017
▁এরপর	-2018
▁শুন	-2019
ages	-2020
▁trans	-2021
▁pass	-2022
▁ক্র	-2023
▁ঈ	-2024
▁ওয়	-2025
▁lear	-2026
ience	-2027
▁incre	-2028
▁exp	-2029
▁chang	-2030
▁উপস্থিত	-2031
▁কেন্দ্র	-2032
▁২০১	-2033
▁Se	-2034
▁ওর	-2035
▁women	-2036
▁cle	-2037
ists	-2038
ুখ	-2039
ুপ	-2040
▁conf	-2041
rem	-2042
▁তাল	-2043
▁change	-2044
▁ed	-2045
▁art	-2046
?"	-2047
gest	-2048
▁ডা	-2049
▁টাকা	-2050
বেদন	-2051
▁যেমন	-2052
টো	-2053
ides	-2054
▁খুঁ	-2055
▁win	-2056
▁রাষ্ট্র	-2057
▁কখনো	-2058
▁invest	-2059
▁প্রেস	-2060
▁দ্রুত	-2061
▁রাজন	-2062
ov	-2063
▁law	-2064
ঙ্ক	-2065
▁গণ	-2066
ided	-2067
▁point	-2068
ানোর	-2069
▁inj	-2070
▁ইসলাম	-2071
▁বন্ধু	-2072
ned	-2073
মানে	-2074
▁father	-2075
▁নিন	-2076
▁যত	-2077
▁৫	-2078
▁তুল	-2079
▁পারবেন	-2080
▁বলেছেন	-2081
িপ	-2082
কেট	-2083
ailable	-2084
ীরা	-2085
▁incident	-2086
▁সুযোগ	-2087
▁গাড়	-2088
▁প্রত্য	-2089
ys	-2090
▁পছন্দ	-2091
▁চিন্ত	-2092
োনা	-2093
▁সময়ে	-2094
▁কখনও	-2095
▁যার	-2096
▁started	-2097
cer	-2098
▁যাচ্ছে	-2099
olle	-2100
▁contin	-2101
rested	-2102
led	-2103
▁sub	-2104
▁হাজ	-2105
▁others	-2106
▁বাস্ত	-2107
chn	-2108
▁Pakistan	-2109
ন্ট	-2110
▁অনুস	-2111
▁বিষয়টি	-2112
cts	-2113
▁during	-2114
লেখ	-2115
▁Q	-2116
▁[	-2117
▁আহ	-2118
▁গান	-2119
▁isn	-2120
rib	-2121
▁main	-2122
▁ভারতীয়	-2123
▁বাবা	-2124
meric	-2125
▁food	-2126
মিত	-2127
▁mar	-2128
▁mother	-2129
▁চা	-2130
hat	-2131
াযোগ	-2132
20	-2133
▁200	-2134
▁Sec	-2135
▁system	-2136
▁ব্ল	-2137
ittle	-2138
▁better	-2139
▁বুঝতে	-2140
▁থাকবে	-2141
▁possible	-2142
lease	-2143
▁অপে	-2144
▁easy	-2145
ৈতিক	-2146
▁আমের	-2147
▁খবর	-2148
ves	-2149
▁অনুম	-2150
ues	-2151
▁situ	-2152
াশ	-2153
▁night	-2154
াবি	-2155
▁met	-2156
▁কোথায়	-2157
▁পণ	-2158
▁জন্ম	-2159
▁ছেলে	-2160
▁cor	-2161
▁সপ্তাহ	-2162
িনে	-2163
▁set	-2164
▁old	-2165
▁four	-2166
▁Prime	-2167
ভূ	-2168
▁Who	-2169
▁জিজ্ঞ	-2170
ety	-2171
টিতে	-2172
con	-2173
ারি	-2174
▁উল্	-2175
▁ইন্টার	-2176
▁doing	-2177
▁ভাবে	-2178
▁উই	-2179
▁cannot	-2180
ীর্ঘ	-2181
ered	-2182
ters	-2183
▁var	-2184
▁জিনি	-2185
▁দক্ষিণ	-2186
▁পুন	-2187
▁believe	-2188
▁এলা	-2189
▁came	-2190
ell	-2191
▁intern	-2192
▁গ্রে	-2193
▁cr	-2194
▁ins	-2195
▁এম	-2196
▁বস	-2197
▁story	-2198
▁গল্প	-2199
▁death	-2200
▁Can	-2201
▁চো	-2202
▁sk	-2203
▁বিদ	-2204
▁আফ	-2205
▁business	-2206
▁answer	-2207
ভাগ	-2208
▁করেছিলেন	-2209
iversity	-2210
▁Z	-2211
ired	-2212
▁form	-2213
িহ	-2214
▁অ্যাপ	-2215
▁পৌ	-2216
▁সমা	-2217
▁hard	-2218
▁আত্ম	-2219
ged	-2220
oup	-2221
▁little	-2222
▁mom	-2223
ron	-2224
▁today	-2225
▁মৃত্যু	-2226
▁পাকিস্ত	-2227
▁জা	-2228
▁আট	-2229
▁video	-2230
▁মহিল	-2231
ural	-2232
▁উল্লেখ	-2233
▁যাই	-2234
▁রহ	-2235
▁সূ	-2236
▁প্রচ	-2237
▁দীর্ঘ	-2238
ted	-2239
▁পূর্	-2240
▁কঠিন	-2241
স্ব	-2242
gin	-2243
▁ভালোবাস	-2244
▁rep	-2245
চিত্র	-2246
▁রকম	-2247
▁যোগাযোগ	-2248
্টি	-2249
▁give	-2250
ism	-2251
fic	-2252
▁Then	-2253
▁বের	-2254
▁sol	-2255
▁game	-2256
▁happy	-2257
▁sign	-2258
ণের	-2259
▁সাং	-2260
oot	-2261
retary	-2262
▁opp	-2263
▁খান	-2264
ায়ের	-2265
▁died	-2266
▁seen	-2267
▁mark	-2268
its	-2269
▁polit	-2270
▁ব্যাপারে	-2271
▁went	-2272
▁support	-2273
▁ধারণ	-2274
▁adv	-2275
▁rest	-2276
▁Americ	-2277
angu	-2278
ene	-2279
▁prot	-2280
ork	-2281
line	-2282
▁around	-2283
▁times	-2284
▁city	-2285
মাকে	-2286
▁str	-2287
▁নিউ	-2288
mber	-2289
▁এখনো	-2290
্যাক	-2291
▁vis	-2292
েট	-2293
ature	-2294
▁মুহ	-2295
▁news	-2296
ases	-2297
▁occ	-2298
▁girl	-2299
▁বর্তমানে	-2300
▁মিশ	-2301
body	-2302
▁৪	-2303
ুক্তি	-2304
▁process	-2305
▁Go	-2306
চ্ছেন	-2307
▁ass	-2308
▁যদিও	-2309
▁social	-2310
▁hospital	-2311
▁Af	-2312
▁true	-2313
▁World	-2314
▁স্ম	-2315
aking	-2316
▁sever	-2317
▁বয়স	-2318
▁বিন	-2319
েরে	-2320
চ্ছা	-2321
▁গুল	-2322
▁অভিজ্ঞ	-2323
▁plan	-2324
▁পৃথিব	-2325
▁free	-2326
▁hope	-2327
▁বিজ্ঞ	-2328
▁তদন্ত	-2329
▁জানান	-2330
▁while	-2331
▁Islam	-2332
ccess	-2333
▁শিল্প	-2334
িডেন্ট	-2335
এন	-2336
▁মোট	-2337
▁dem	-2338
▁mod	-2339
▁cre	-2340
▁গবে	-2341
▁char	-2342
▁উপায়	-2343
▁বিশ্বের	-2344
বিদ্যাল	-2345
▁এটাই	-2346
কদের	-2347
▁United	-2348
We	-2349
▁প্রভাব	-2350
▁several	-2351
▁সী	-2352
ভা	-2353
▁because	-2354
▁সম্পূর্ণ	-2355
ants	-2356
▁po	-2357
▁hist	-2358
▁power	-2359
শীল	-2360
যোগ্য	-2361
সব	-2362
▁সহায়	-2363
▁মাল	-2364
▁partic	-2365
▁pop	-2366
▁Cong	-2367
▁শর	-2368
▁তাতে	-2369
কিছু	-2370
▁সেরা	-2371
ames	-2372
বর্তী	-2373
▁এবার	-2374
▁অথবা	-2375
▁ann	-2376
এম	-2377
▁small	-2378
▁sure	-2379
▁দেন	-2380
amp	-2381
▁live	-2382
▁অত্য	-2383
▁keep	-2384
▁Not	-2385
ird	-2386
শেষ	-2387
ব্দ	-2388
▁ওপর	-2389
▁else	-2390
▁9	-2391
▁since	-2392
▁যারা	-2393
▁ঘটে	-2394
▁সালের	-2395
used	-2396
▁প্ল	-2397
▁কল	-2398
ently	-2399
▁Khan	-2400
▁সো	-2401
▁inter	-2402
জাতিক	-2403
▁কাল	-2404
lish	-2405
স্কার	-2406
াপা	-2407
▁reason	-2408
▁ext	-2409
min	-2410
দার	-2411
▁সার্	-2412
বিষ	-2413
▁কর্ত	-2414
orn	-2415
▁পরিস্থিত	-2416
ready	-2417
osed	-2418
ained	-2419
rence	-2420
000	-2421
ক্রম	-2422
▁working	-2423
ts	-2424
্লে	-2425
▁App	-2426
▁ক্ষম	-2427
ention	-2428
▁সমাধান	-2429
▁Act	-2430
তের	-2431
▁Mus	-2432
▁সংখ্যা	-2433
কর্ত	-2434
▁One	-2435
করণ	-2436
▁সঠিক	-2437
ology	-2438
▁pict	-2439
▁জিনিস	-2440
▁giv	-2441
▁wasn	-2442
দী	-2443
▁col	-2444
arent	-2445
▁সম্প্র	-2446
▁পণ্য	-2447
▁জানেন	-2448
▁হাম	-2449
▁media	-2450
ized	-2451
ারাপ	-2452
র্জাতিক	-2453
▁wa	-2454
▁che	-2455
▁বৃদ্ধ	-2456
▁cond	-2457
▁পুরো	-2458
হে	-2459
ars	-2460
াদক	-2461
▁অঞ্চ	-2462
রাং	-2463
আর	-2464
সল	-2465
▁thank	-2466
▁word	-2467
▁called	-2468
ware	-2469
▁Tw	-2470
িয়ার	-2471
▁সমর্থ	-2472
▁far	-2473
uro	-2474
▁নেওয়া	-2475
নিক	-2476
▁উভ	-2477
▁took	-2478
্রু	-2479
▁ফোন	-2480
▁সভাপ	-2481
▁ইতিহাস	-2482
▁কম্প	-2483
ss	-2484
▁নাকি	-2485
▁খো	-2486
▁জানতে	-2487
▁এগ	-2488
▁প্রতিটি	-2489
▁ফেল	-2490
ল্পনা	-2491
বন্ধ	-2492
কেল	-2493
▁ক্রি	-2494
▁অত্যন্ত	-2495
রাস	-2496
▁বদ	-2497
▁kind	-2498
▁ভাগ	-2499
▁phot	-2500
▁Acc	-2501
▁খারাপ	-2502
▁current	-2503
▁কয়েকটি	-2504
ারিত	-2505
▁সৃ	-2506
▁already	-2507
▁হ্যা	-2508
▁organ	-2509
▁থাকা	-2510
▁সুত	-2511
▁everyone	-2512
▁contro	-2513
▁ধর্ম	-2514
▁Me	-2515
▁asked	-2516
▁অন্তত	-2517
জনক	-2518
সময়	-2519
JP	-2520
ran	-2521
ury	-2522
▁ob	-2523
▁head	-2524
▁away	-2525
▁সত্যিই	-2526
াপ্ত	-2527
▁rece	-2528
▁সবার	-2529
▁sent	-2530
▁কাউ	-2531
র্ভ	-2532
▁progr	-2533
▁বিচার	-2534
ner	-2535
tend	-2536
ately	-2537
েনি	-2538
▁ভালবাস	-2539
▁meeting	-2540
▁আহত	-2541
▁known	-2542
▁যেখানে	-2543
▁ঘোষণা	-2544
▁Dh	-2545
▁human	-2546
▁কলে	-2547
▁প্রত	-2548
▁ইউর	-2549
▁test	-2550
▁উদ্ধ	-2551
▁fact	-2552
▁নির্বাচন	-2553
▁মারা	-2554
▁আসে	-2555
▁সুতরাং	-2556
▁success	-2557
▁mean	-2558
▁পরিক	-2559
ষ্কার	-2560
▁বিস্ত	-2561
াতা	-2562
▁রো	-2563
াধীন	-2564
োর্ট	-2565
ম্ব	-2566
▁attack	-2567
ুব	-2568
দিকে	-2569
গুলোর	-2570
▁friends	-2571
▁ref	-2572
▁”	-2573
▁mus	-2574
▁begin	-2575
▁হয়তো	-2576
lim	-2577
বান	-2578
▁শিখ	-2579
িয়ান	-2580
▁আলোচনা	-2581
▁পাঁচ	-2582
▁অত	-2583
▁রাখতে	-2584
ality	-2585
▁toget	-2586
▁খাবার	-2587
▁together	-2588
na	-2589
িন্দ	-2590
▁সাল	-2591
▁students	-2592
গের	-2593
▁ty	-2594
▁তোমাকে	-2595
▁উৎস	-2596
▁air	-2597
▁const	-2598
ets	-2599
ax	-2600
▁কু	-2601
ump	-2602
ক্ট	-2603
▁matter	-2604
▁পাই	-2605
ন্তব্য	-2606
▁war	-2607
▁Intern	-2608
▁বিমান	-2609
iful	-2610
gle	-2611
ived	-2612
▁Allah	-2613
▁অবস্থা	-2614
▁দাঁ	-2615
▁লাভ	-2616
▁18	-2617
▁Pe	-2618
▁ey	-2619
াকা	-2620
▁return	-2621
▁15	-2622
augh	-2623
▁langu	-2624
▁among	-2625
▁দাম	-2626
ream	-2627
▁pri	-2628
▁বাড়ি	-2629
▁Te	-2630
বিধা	-2631
▁কেমন	-2632
▁পরাম	-2633
▁ফ্র	-2634
▁run	-2635
illion	-2636
▁আছেন	-2637
▁soon	-2638
ertain	-2639
▁without	-2640
▁চলছে	-2641
▁তেমন	-2642
▁হাত	-2643
atch	-2644
▁might	-2645
▁Ah	-2646
ficult	-2647
াহরণ	-2648
▁heart	-2649
▁যুদ্ধ	-2650
ten	-2651
তেন	-2652
ুরুষ	-2653
র্য	-2654
▁দেশে	-2655
▁When	-2656
▁আপনাদের	-2657
▁area	-2658
ূর্ত	-2659
▁stay	-2660
চের	-2661
▁লাগে	-2662
▁শহর	-2663
▁China	-2664
▁ওয়েবস	-2665
ন্দে	-2666
▁ইউনি	-2667
ংক	-2668
▁ever	-2669
ক্রান্ত	-2670
▁পথ	-2671
▁BJP	-2672
▁অতি	-2673
▁বাহ	-2674
▁কৃ	-2675
▁able	-2676
▁পরামর্শ	-2677
▁told	-2678
▁প্রার্থ	-2679
্যাট	-2680
ংস	-2681
▁সম্ভাব	-2682
▁কন	-2683
▁killed	-2684
▁জীবনের	-2685
▁fore	-2686
▁বাস্তব	-2687
▁শিক্ষা	-2688
জনের	-2689
▁পোস্ট	-2690
▁অফিস	-2691
▁couldn	-2692
োয়া	-2693
▁ভিত্ত	-2694
▁techn	-2695
▁blo	-2696
াপাশি	-2697
▁সফ	-2698
▁says	-2699
▁beaut	-2700
▁arrested	-2701
▁Man	-2702
▁conne	-2703
▁dep	-2704
uthor	-2705
▁পদ্ধ	-2706
aka	-2707
ale	-2708
▁নির্ভ	-2709
▁দলের	-2710
▁official	-2711
que	-2712
▁:	-2713
▁পরীক্ষা	-2714
ালী	-2715
ক্ষেপ	-2716
▁পাশাপাশি	-2717
▁prof	-2718
▁মাঝে	-2719
▁ফল	-2720
▁Ag	-2721
ollege	-2722
▁oper	-2723
▁সুর	-2724
িগ	-2725
uture	-2726
▁হাজার	-2727
▁নারী	-2728
▁লক্ষ্য	-2729
▁সাই	-2730
▁সচ	-2731
ুজ	-2732
ডিয়া	-2733
urity	-2734
▁memb	-2735
▁শক্ত	-2736
এই	-2737
লেই	-2738
▁group	-2739
▁হোক	-2740
▁রাখা	-2741
▁পক্ষে	-2742
▁বিজে	-2743
বিষ্য	-2744
▁নিম	-2745
▁face	-2746
▁Mod	-2747
conom	-2748
▁সৌ	-2749
ক্য	-2750
▁webs	-2751
▁বিল	-2752
▁থেকেই	-2753
▁stand	-2754
▁অপর	-2755
▁(1	-2756
▁শান্ত	-2757
▁ide	-2758
্রাম	-2759
▁ঘুম	-2760
▁ইন্	-2761
ha	-2762
▁woman	-2763
মধ্য	-2764
▁তাঁদের	-2765
গ্রে	-2766
ati	-2767
▁মূল্য	-2768
▁স্কুল	-2769
ায়ক	-2770
▁তুলে	-2771
▁Let	-2772
▁শেখ	-2773
▁নিহত	-2774
▁পরিবারের	-2775
▁members	-2776
সহ	-2777
pped	-2778
তর	-2779
▁কম্পিউ	-2780
▁Could	-2781
gy	-2782
▁উদাহরণ	-2783
▁ঠ	-2784
▁আদাল	-2785
▁ভবিষ্য	-2786
▁সংস্থা	-2787
▁অপেক্ষা	-2788
unity	-2789
▁Euro	-2790
▁mind	-2791
▁phone	-2792
▁দার	-2793
▁নির্দেশ	-2794
com	-2795
▁pur	-2796
ering	-2797
য়োগ	-2798
▁educ	-2799
▁প্রস্তুত	-2800
▁স্বা	-2801
▁প্রযুক্ত	-2802
▁এন	-2803
▁চলচ্	-2804
▁hear	-2805
েব	-2806
▁অনল	-2807
রাহ	-2808
▁তোমাদের	-2809
▁বিভাগ	-2810
▁mil	-2811
িসি	-2812
▁অভিজ্ঞতা	-2813
▁গঠ	-2814
▁mov	-2815
▁অধিকার	-2816
▁দিয়েছে	-2817
▁চায়	-2818
▁প্রদান	-2819
াফ	-2820
াও	-2821
▁injured	-2822
▁show	-2823
জনে	-2824
েস্ট	-2825
▁তাঁকে	-2826
▁become	-2827
▁আছি	-2828
▁tem	-2829
▁cap	-2830
ূলক	-2831
▁আরেক	-2832
▁discuss	-2833
▁নিরাপত্ত	-2834
▁প্রাণ	-2835
ভাই	-2836
ours	-2837
▁গে	-2838
▁কাছ	-2839
▁সির	-2840
itted	-2841
▁সরকারের	-2842
▁ওরা	-2843
▁শব্দ	-2844
har	-2845
বাব	-2846
তর্ক	-2847
▁future	-2848
▁পরিমাণ	-2849
▁given	-2850
▁bad	-2851
▁course	-2852
▁বোঝ	-2853
ross	-2854
িয়ন	-2855
▁সংস্ক	-2856
ract	-2857
ৎকার	-2858
▁investig	-2859
▁Rah	-2860
ীকার	-2861
▁স্থানীয়	-2862
▁room	-2863
▁লাই	-2864
য়াল	-2865
ffect	-2866
▁ছাড়	-2867
▁special	-2868
▁নাগ	-2869
ক্ষম	-2870
কো	-2871
পতি	-2872
▁উদ্দেশ	-2873
uck	-2874
▁কর্মকর্ত	-2875
ajor	-2876
▁expl	-2877
▁মামলা	-2878
▁পানি	-2879
▁event	-2880
তায়	-2881
র্শন	-2882
্যাস	-2883
▁five	-2884
orth	-2885
▁build	-2886
ize	-2887
▁জায়গা	-2888
▁চম	-2889
ption	-2890
ins	-2891
less	-2892
ffic	-2893
▁ve	-2894
▁sl	-2895
▁ris	-2896
▁বাইরে	-2897
▁সরব	-2898
িনী	-2899
▁করেছিল	-2900
rat	-2901
ustom	-2902
▁রাজ্য	-2903
book	-2904
গুলিতে	-2905
▁men	-2906
▁doctor	-2907
▁wrong	-2908
▁খা	-2909
ament	-2910
বহ	-2911
বির	-2912
▁district	-2913
▁উত	-2914
ান্স	-2915
▁চিন্তা	-2916
▁public	-2917
▁Many	-2918
িকভাবে	-2919
▁উৎ	-2920
জ্জ	-2921
▁wife	-2922
▁নেত	-2923
▁left	-2924
▁12	-2925
ার্স	-2926
▁সারা	-2927
▁seem	-2928
▁Ex	-2929
▁dri	-2930
▁complete	-2931
▁age	-2932
ains	-2933
▁Europe	-2934
▁project	-2935
টন	-2936
▁decision	-2937
▁মন্তব্য	-2938
▁quite	-2939
▁appro	-2940
ময়	-2941
▁equ	-2942
রণের	-2943
▁জয়	-2944
▁ধারণা	-2945
▁বিব	-2946
োদ	-2947
▁আবেদন	-2948
rick	-2949
▁দাবি	-2950
▁Sing	-2951
▁খুঁজে	-2952
াস্ত	-2953
▁May	-2954
▁দেয়া	-2955
▁def	-2956
ically	-2957
▁কলেজ	-2958
▁স্বাধীন	-2959
ency	-2960
ুদ	-2961
icle	-2962
▁পেতে	-2963
▁সবকিছু	-2964
▁অর্থন	-2965
▁নির্ভর	-2966
▁history	-2967
uter	-2968
▁বাকি	-2969
▁রক্ত	-2970
▁moment	-2971
▁আধ	-2972
▁খুশি	-2973
▁Del	-2974
▁court	-2975
▁দশ	-2976
▁National	-2977
▁ছু	-2978
▁South	-2979
ীরে	-2980
▁একেবার	-2981
▁সন্তান	-2982
▁প্রস	-2983
leep	-2984
▁ce	-2985
▁পু	-2986
▁দায়িত্ব	-2987
ued	-2988
▁son	-2989
▁sing	-2990
▁আগামী	-2991
▁ঘটনায়	-2992
▁example	-2993
▁respons	-2994
▁ভূম	-2995
▁job	-2996
ration	-2997
▁যাব	-2998
▁প্রত্যেক	-2999
▁order	-3000
▁বৃহ	-3001
▁ব্যবস	-3002
▁নিজেকে	-3003
▁প্রমাণ	-3004
▁পুরুষ	-3005
োষ	-3006
▁৬	-3007
ully	-3008
▁শুভ	-3009
াজিক	-3010
▁রান	-3011
,000	-3012
▁সেন	-3013
▁account	-3014
iving	-3015
▁কাজে	-3016
▁উদ্ধার	-3017
-1	-3018
ধি	-3019
ither	-3020
▁কোম্প	-3021
▁ক্ষতি	-3022
▁Med	-3023
▁সফল	-3024
▁months	-3025
াম্প	-3026
▁actually	-3027
দিষ্ট	-3028
▁গা	-3029
▁light	-3030
ya	-3031
rist	-3032
▁আক	-3033
▁pos	-3034
▁States	-3035
ior	-3036
▁ব্রি	-3037
▁সহায়তা	-3038
▁ছাত্র	-3039
খানেই	-3040
▁সার	-3041
▁জু	-3042
লায়	-3043
▁minister	-3044
io	-3045
wards	-3046
▁market	-3047
▁young	-3048
▁party	-3049
▁ফের	-3050
▁তর	-3051
▁চোখ	-3052
ট্র	-3053
▁শক্তি	-3054
loy	-3055
▁dr	-3056
▁নই	-3057
▁service	-3058
▁সময়ের	-3059
▁সরবরাহ	-3060
▁whole	-3061
োভ	-3062
▁হাতে	-3063
চি	-3064
▁beh	-3065
engal	-3066
স্প	-3067
▁বহু	-3068
▁যৌ	-3069
▁সংগ	-3070
ষ্ট্রের	-3071
▁সবসময়	-3072
▁প্রতিদিন	-3073
▁সম্পাদক	-3074
হিত	-3075
▁প্রকল্প	-3076
▁জীবনে	-3077
▁large	-3078
েম্বর	-3079
▁পৌঁ	-3080
iet	-3081
লিক	-3082
▁held	-3083
গ্রহণ	-3084
▁Or	-3085
ংরে	-3086
ession	-3087
ke	-3088
▁হাই	-3089
▁সিস্ট	-3090
▁company	-3091
ified	-3092
শা	-3093
▁wanted	-3094
▁bo	-3095
reme	-3096
▁looking	-3097
▁গাড়ি	-3098
▁necess	-3099
▁দেওয়ার	-3100
▁১০	-3101
▁prev	-3102
▁খেলা	-3103
▁হয়েছেন	-3104
▁লেখা	-3105
িক্ত	-3106
▁সংবাদ	-3107
▁এল	-3108
▁online	-3109
▁English	-3110
ger	-3111
▁পাবেন	-3112
▁একবার	-3113
▁পদ্ধতি	-3114
ড়ি	-3115
▁ছিলাম	-3116
▁press	-3117
▁Mah	-3118
▁applic	-3119
▁problems	-3120
▁data	-3121
▁To	-3122
▁Je	-3123
▁la	-3124
▁সেটি	-3125
▁বর	-3126
▁শত	-3127
▁দিক	-3128
▁উভয়	-3129
▁রেখে	-3130
▁pay	-3131
▁সামাজিক	-3132
▁mor	-3133
▁ফুট	-3134
▁Now	-3135
▁আলাদা	-3136
▁website	-3137
▁দেখুন	-3138
ডিয়	-3139
রী	-3140
রাধ	-3141
▁পরিচিত	-3142
▁regard	-3143
ংগ্রে	-3144
▁সভাপতি	-3145
▁fire	-3146
▁স্ত্রী	-3147
▁dev	-3148
▁major	-3149
▁Congress	-3150
ourn	-3151
lished	-3152
ense	-3153
প্রিয়	-3154
▁Raj	-3155
▁জেলা	-3156
ডার	-3157
▁Where	-3158
▁তাহার	-3159
▁কাম	-3160
▁design	-3161
▁সাধারণত	-3162
্ট্র	-3163
▁বর্ণ	-3164
যায়ী	-3165
af	-3166
▁ইউরোপ	-3167
▁শরীর	-3168
▁শ্রী	-3169
▁30	-3170
▁কৃষ	-3171
▁এগিয়ে	-3172
▁সামনে	-3173
▁cost	-3174
▁unt	-3175
▁Bengal	-3176
▁inf	-3177
reen	-3178
▁needs	-3179
▁পরিবেশ	-3180
▁অন্যতম	-3181
▁top	-3182
▁বেশির	-3183
▁জার্	-3184
▁ভিন্ন	-3185
▁road	-3186
▁People	-3187
▁পারবে	-3188
▁চিকিৎস	-3189
েও	-3190
।"""	-3191
▁0	-3192
▁তোমরা	-3193
▁দিনের	-3194
▁These	-3195
▁যাওয়ার	-3196
▁ভোট	-3197
▁হে	-3198
▁আনন্দ	-3199
▁কংগ্রে	-3200
▁Some	-3201
ider	-3202
▁তাঁরা	-3203
?"""	-3204
joy	-3205
▁ওঠ	-3206
ium	-3207
▁যথে	-3208
sh	-3209
▁জিজ্ঞাস	-3210
▁পশ্চ	-3211
▁yourself	-3212
▁put	-3213
কোন	-3214
▁means	-3215
▁simple	-3216
▁clear	-3217
জন্য	-3218
▁ইন্টারনে	-3219
▁pain	-3220
ড়াই	-3221
▁এসেছে	-3222
▁বললেন	-3223
ricket	-3224
▁ছেড়ে	-3225
▁General	-3226
াট	-3227
▁সঙ্গ	-3228
▁issue	-3229
ার্ক	-3230
ত্তি	-3231
▁grow	-3232
▁মানে	-3233
ague	-3234
াদন	-3235
▁Modi	-3236
▁মার	-3237
▁Delhi	-3238
্না	-3239
রাজ	-3240
▁চি	-3241
ীক	-3242
▁পেশ	-3243
ীপ	-3244
েন্দ্র	-3245
▁eyes	-3246
most	-3247
▁যাওয়া	-3248
▁গভ	-3249
▁কথ	-3250
▁সৃষ্টি	-3251
raph	-3252
▁econom	-3253
It	-3254
ier	-3255
▁বাড়িতে	-3256
টওয়	-3257
▁Shah	-3258
▁পালন	-3259
▁গ্রাহ	-3260
▁enough	-3261
▁আমিও	-3262
▁dise	-3263
▁কর্তৃ	-3264
▁Aust	-3265
▁সাব	-3266
ান্ড	-3267
▁সমস্য	-3268
▁মুসল	-3269
▁প্রত্যা	-3270
▁Fr	-3271
▁parent	-3272
ock	-3273
work	-3274
app	-3275
▁however	-3276
▁জানে	-3277
▁remember	-3278
▁ফিল	-3279
▁announ	-3280
▁বক্ত	-3281
▁val	-3282
▁প্রেম	-3283
▁spec	-3284
▁শ্রে	-3285
▁anyone	-3286
ালি	-3287
▁lost	-3288
reed	-3289
ম্ভ	-3290
iter	-3291
▁various	-3292
▁leg	-3293
মের	-3294
▁রঙ	-3295
▁বোধ	-3296
েন্ড	-3297
▁পায়	-3298
▁শাহ	-3299
▁যথেষ্ট	-3300
▁Just	-3301
oogle	-3302
▁national	-3303
▁রাস্ত	-3304
ুমাত্র	-3305
leased	-3306
▁Has	-3307
▁ফলা	-3308
▁যায়নি	-3309
▁short	-3310
▁স্বপ	-3311
▁control	-3312
▁Dhaka	-3313
▁ওদের	-3314
▁ম্যাচ	-3315
▁level	-3316
▁গ্রাম	-3317
ories	-3318
ম্যান	-3319
▁সুবিধা	-3320
▁অ্যান্ড	-3321
▁ক্ষমতা	-3322
▁খর	-3323
istry	-3324
াপন	-3325
▁daugh	-3326
▁একা	-3327
▁পক্ষ	-3328
erv	-3329
▁step	-3330
par	-3331
ror	-3332
▁দুঃ	-3333
▁move	-3334
▁সিস্টেম	-3335
▁সমর্থন	-3336
▁accused	-3337
▁অনুযায়ী	-3338
▁prom	-3339
▁song	-3340
▁train	-3341
▁মুহূর্ত	-3342
ield	-3343
ডের	-3344
▁treat	-3345
কায়	-3346
urther	-3347
েলি	-3348
ched	-3349
থমে	-3350
▁inde	-3351
▁দিয়েছেন	-3352
▁bat	-3353
▁Russ	-3354
▁using	-3355
▁dead	-3356
দান	-3357
▁ভেবে	-3358
▁তালিকা	-3359
▁জনপ্রিয়	-3360
▁/	-3361
▁learn	-3362
▁Par	-3363
▁speak	-3364
▁due	-3365
▁class	-3366
▁rese	-3367
▁উপল	-3368
▁language	-3369
▁চাক	-3370
▁আগ্রহ	-3371
গান	-3372
▁২০০	-3373
▁বিবে	-3374
▁ঝুঁ	-3375
▁past	-3376
▁coming	-3377
▁Here	-3378
▁অভিনয়	-3379
▁Muslim	-3380
▁ঘটনার	-3381
ids	-3382
▁রহমান	-3383
▁sci	-3384
▁shall	-3385
▁তৃত	-3386
▁পুলিশের	-3387
▁পরিষে	-3388
▁State	-3389
▁পদক্ষেপ	-3390
▁খাদ	-3391
▁সংশ	-3392
▁author	-3393
হৃত	-3394
টিকে	-3395
▁ইম	-3396
▁Sy	-3397
▁changed	-3398
▁est	-3399
▁শতা	-3400
▁তিনটি	-3401
iron	-3402
▁জর	-3403
▁interest	-3404
rab	-3405
▁ট্রাম্প	-3406
▁bas	-3407
▁বৃদ্ধি	-3408
▁ফেস	-3409
▁once	-3410
▁certain	-3411
▁Face	-3412
ভাবেই	-3413
▁তবু	-3414
▁ভাষা	-3415
▁vir	-3416
▁ড্র	-3417
▁নিম্ন	-3418
▁spok	-3419
▁enjoy	-3420
র্ষণ	-3421
তিরিক্ত	-3422
▁গেম	-3423
▁এছাড়াও	-3424
▁মিনি	-3425
▁within	-3426
পক্ষ	-3427
▁হোস	-3428
▁সর্বো	-3429
▁stop	-3430
▁অবস্থিত	-3431
লী	-3432
uly	-3433
▁turn	-3434
▁relig	-3435
াত্রী	-3436
মেন্ট	-3437
ৃদ	-3438
itional	-3439
পন্ন	-3440
▁music	-3441
▁Su	-3442
▁activ	-3443
▁৷	-3444
aim	-3445
▁আর্	-3446
▁Ph	-3447
▁অস্ব	-3448
াম্ম	-3449
খ্য	-3450
▁agree	-3451
▁পুরস্কার	-3452
▁ব্যবহৃত	-3453
মত	-3454
ালা	-3455
akes	-3456
টিক	-3457
▁দেব	-3458
পক	-3459
▁Christ	-3460
▁11	-3461
""।"	-3462
▁heard	-3463
▁বিয়ে	-3464
▁products	-3465
▁৭	-3466
থি	-3467
itte	-3468
▁করলেন	-3469
rug	-3470
▁eng	-3471
▁পূর্ব	-3472
den	-3473
▁কোথা	-3474
▁প্রচুর	-3475
▁Trump	-3476
▁বাজার	-3477
▁চেয়ার	-3478
ূহ	-3479
unic	-3480
নাম	-3481
▁নামে	-3482
িশন	-3483
ভাবিক	-3484
▁near	-3485
▁Your	-3486
▁উপাদ	-3487
▁movie	-3488
▁এদের	-3489
▁bene	-3490
▁প্রথমে	-3491
▁থাকার	-3492
▁land	-3493
▁উঠে	-3494
rand	-3495
▁ইংরে	-3496
▁though	-3497
▁entire	-3498
▁নাগরিক	-3499
▁চী	-3500
▁ফেলে	-3501
▁কিনা	-3502
▁risk	-3503
▁বর্তমান	-3504
▁কাজের	-3505
▁needed	-3506
▁Kh	-3507
new	-3508
▁Facebook	-3509
ibility	-3510
▁custom	-3511
▁হ্যাঁ	-3512
শ্বর	-3513
▁সিং	-3514
▁surpr	-3515
▁কমি	-3516
▁প্রতির	-3517
▁knows	-3518
utes	-3519
▁fac	-3520
▁নম	-3521
ians	-3522
▁জন্যে	-3523
▁less	-3524
▁perform	-3525
▁জনগ	-3526
▁দারুণ	-3527
uge	-3528
▁বসে	-3529
▁ওকে	-3530
▁former	-3531
করা	-3532
▁নেতা	-3533
▁দর	-3534
ying	-3535
▁খে	-3536
▁নিক	-3537
▁অতিরিক্ত	-3538
▁আয়	-3539
▁রাজনৈতিক	-3540
▁million	-3541
▁clo	-3542
▁অর্জন	-3543
▁মাই	-3544
▁sleep	-3545
umb	-3546
▁তৃতীয়	-3547
জীব	-3548
ৃতিক	-3549
▁জেল	-3550
▁cou	-3551
▁brother	-3552
▁truth	-3553
▁ready	-3554
▁write	-3555
▁dream	-3556
ঘট	-3557
▁effect	-3558
▁সহযোগ	-3559
▁করিতে	-3560
▁100	-3561
▁থাকেন	-3562
the	-3563
িয়াম	-3564
▁trying	-3565
▁Austral	-3566
▁ক্যাম	-3567
▁Dr	-3568
টুক	-3569
▁মানব	-3570
▁হত্যা	-3571
view	-3572
▁এক্স	-3573
▁রি	-3574
তু	-3575
▁অথচ	-3576
▁Moh	-3577
শিয়া	-3578
্যান্স	-3579
ভোগ	-3580
▁getting	-3581
▁Singh	-3582
▁accept	-3583
▁সুপার	-3584
উট	-3585
▁দূর	-3586
▁Cent	-3587
▁স্বপ্ন	-3588
ination	-3589
▁৮	-3590
বাধ	-3591
আমরা	-3592
▁sug	-3593
▁ভে	-3594
▁অস্ট্র	-3595
▁ঘর	-3596
▁বান	-3597
র্ষ	-3598
▁Google	-3599
▁impro	-3600
▁view	-3601
▁strong	-3602
▁parents	-3603
▁জড়	-3604
side	-3605
irth	-3606
▁Min	-3607
াদি	-3608
▁action	-3609
ationship	-3610
oud	-3611
▁Sa	-3612
▁যাতে	-3613
▁পরবর্তী	-3614
▁local	-3615
▁আপনারা	-3616
▁detail	-3617
িকায়	-3618
▁computer	-3619
ms	-3620
▁leave	-3621
ফি	-3622
ploy	-3623
▁Pl	-3624
ঘাত	-3625
▁Hind	-3626
▁ভারতে	-3627
▁cult	-3628
apt	-3629
▁peace	-3630
▁sour	-3631
▁নর	-3632
alf	-3633
▁অস্ট্রেল	-3634
▁Inst	-3635
br	-3636
▁rul	-3637
ressed	-3638
▁এমনকি	-3639
▁personal	-3640
erman	-3641
▁টুই	-3642
▁সেটাই	-3643
itive	-3644
পরি	-3645
▁মহিলা	-3646
▁ওয়া	-3647
▁সীম	-3648
▁সতর্ক	-3649
▁কার্যকর	-3650
▁ago	-3651
▁প্রবেশ	-3652
ton	-3653
▁Bl	-3654
ুরী	-3655
▁security	-3656
শ্বাস	-3657
পরে	-3658
▁Brit	-3659
▁হইয়া	-3660
ালো	-3661
▁fight	-3662
▁proper	-3663
acher	-3664
েনের	-3665
▁bit	-3666
▁সংস	-3667
এফ	-3668
▁Mu	-3669
▁রই	-3670
▁এগুলো	-3671
▁সিনে	-3672
my	-3673
গ্রাম	-3674
▁লিখে	-3675
▁Day	-3676
রাষ্ট্র	-3677
ুদ্র	-3678
ones	-3679
▁বৈঠ	-3680
▁চাপ	-3681
▁third	-3682
▁tot	-3683
▁করিয়া	-3684
▁বিনি	-3685
ittee	-3686
▁বিজেপি	-3687
▁সক্ষম	-3688
▁indust	-3689
▁অপরাধ	-3690
though	-3691
শিষ্ট	-3692
idence	-3693
▁ছিলো	-3694
▁hot	-3695
আপন	-3696
▁শুনে	-3697
াউন	-3698
▁ব্যক্ত	-3699
▁বাচ্চ	-3700
▁saying	-3701
▁eat	-3702
▁করবো	-3703
▁blog	-3704
▁fear	-3705
▁জাতি	-3706
▁ভর্ত	-3707
▁sal	-3708
গর	-3709
▁অসা	-3710
▁popular	-3711
▁কষ্ট	-3712
▁allow	-3713
din	-3714
▁করলাম	-3715
▁অস্ত	-3716
▁শতাংশ	-3717
▁কিং	-3718
▁মৌ	-3719
▁একমাত্র	-3720
pur	-3721
▁blood	-3722
ন্দেহ	-3723
▁নির	-3724
▁further	-3725
cent	-3726
ization	-3727
▁College	-3728
oice	-3729
▁either	-3730
▁পরীক্ষ	-3731
▁Br	-3732
জের	-3733
▁spot	-3734
▁Im	-3735
▁মুক্তি	-3736
িকান	-3737
▁site	-3738
▁general	-3739
▁টাই	-3740
▁পর্যা	-3741
▁Hospital	-3742
▁side	-3743
▁aut	-3744
▁আসছে	-3745
▁reported	-3746
▁compl	-3747
ammad	-3748
Th	-3749
▁services	-3750
▁ফলাফল	-3751
োগ্রাম	-3752
▁নী	-3753
▁প্রশ্নের	-3754
▁ঘরে	-3755
eg	-3756
▁Two	-3757
্টা	-3758
▁শেয়ার	-3759
▁Another	-3760
▁ঘটন	-3761
▁উপাদান	-3762
▁বাদ	-3763
▁লেগে	-3764
rop	-3765
▁বিজ্ঞান	-3766
ery	-3767
▁visit	-3768
itten	-3769
▁common	-3770
মার	-3771
কেশন	-3772
itions	-3773
ায়ে	-3774
▁মর	-3775
▁Cour	-3776
▁ডাক্ত	-3777
▁Bel	-3778
▁particip	-3779
▁often	-3780
▁স্পষ্ট	-3781
akh	-3782
▁League	-3783
pected	-3784
▁নিশ্চয়	-3785
▁নিজেদের	-3786
▁প্রশাস	-3787
▁বিদ্য	-3788
▁role	-3789
▁খরচ	-3790
tty	-3791
▁কোর্	-3792
overed	-3793
▁দুঃখ	-3794
▁opport	-3795
He	-3796
:1	-3797
▁মোব	-3798
▁আফ্র	-3799
▁কৃত	-3800
▁attend	-3801
▁Res	-3802
ৎসা	-3803
▁পারছি	-3804
▁জ্	-3805
▁program	-3806
▁সবই	-3807
▁Chief	-3808
▁hig	-3809
▁জার্মান	-3810
▁বেশিরভাগ	-3811
▁চিত্র	-3812
▁leaders	-3813
rain	-3814
ulation	-3815
▁results	-3816
▁মন্দ	-3817
▁fa	-3818
কিং	-3819
ern	-3820
▁রাত	-3821
▁বাণ	-3822
▁concer	-3823
সিক	-3824
▁করলে	-3825
▁lives	-3826
▁became	-3827
▁Everyone	-3828
▁books	-3829
▁es	-3830
▁হোসেন	-3831
▁জ্ঞ	-3832
▁until	-3833
পক্ষে	-3834
▁Sp	-3835
নী	-3836
une	-3837
দুল	-3838
▁জো	-3839
▁সম্ব	-3840
▁স্থা	-3841
▁forget	-3842
bal	-3843
▁রু	-3844
▁ident	-3845
▁played	-3846
▁রূপ	-3847
▁পার্থ	-3848
▁বাত	-3849
▁অসাধারণ	-3850
▁Afric	-3851
েতন	-3852
viron	-3853
▁বিস্	-3854
ball	-3855
▁works	-3856
কর্ম	-3857
▁began	-3858
artment	-3859
▁গিয়েছে	-3860
▁হৃদ	-3861
জর	-3862
▁অন্তর্ভ	-3863
▁gener	-3864
ana	-3865
▁full	-3866
▁শীর্	-3867
সূ	-3868
ান্তর	-3869
▁পরিষ্কার	-3870
▁শেষে	-3871
▁সমাজ	-3872
▁রয়েছেন	-3873
oid	-3874
▁Dep	-3875
▁চিকিৎসা	-3876
mitted	-3877
▁উৎপ	-3878
▁তেল	-3879
eal	-3880
load	-3881
ন্ধান	-3882
▁along	-3883
▁alone	-3884
টিশ	-3885
▁নানা	-3886
▁অসু	-3887
▁close	-3888
where	-3889
▁নিচে	-3890
▁price	-3891
ats	-3892
▁ব্যবসা	-3893
▁করল	-3894
▁প্রাথম	-3895
▁hold	-3896
▁safe	-3897
বী	-3898
▁লড়াই	-3899
পির	-3900
You	-3901
▁having	-3902
▁অনুর	-3903
band	-3904
▁occur	-3905
▁invol	-3906
বৃ	-3907
মিন	-3908
▁remain	-3909
▁পেল	-3910
soci	-3911
iod	-3912
▁Cont	-3913
▁rain	-3914
▁Abd	-3915
▁picture	-3916
▁chief	-3917
▁comes	-3918
▁dou	-3919
▁সম্ভাবনা	-3920
ising	-3921
▁পথে	-3922
▁German	-3923
কারীদের	-3924
▁মৃত্যুর	-3925
▁boy	-3926
▁coll	-3927
ges	-3928
▁bre	-3929
▁রিপ	-3930
▁daughter	-3931
por	-3932
amed	-3933
বাক	-3934
▁morning	-3935
▁সুখ	-3936
▁elect	-3937
ত্তম	-3938
ront	-3939
মধ্যে	-3940
বের	-3941
পের	-3942
▁পরিষেবা	-3943
জয়	-3944
পত্র	-3945
medi	-3946
▁plac	-3947
▁join	-3948
াস্থ	-3949
ikh	-3950
▁six	-3951
▁ফ্ল	-3952
▁exc	-3953
▁গবেষণা	-3954
▁respect	-3955
cing	-3956
ndra	-3957
▁pretty	-3958
▁below	-3959
ential	-3960
▁exact	-3961
ুধ	-3962
▁include	-3963
▁ঢাকা	-3964
রকম	-3965
cially	-3966
▁across	-3967
▁hours	-3968
িশালী	-3969
▁পেরে	-3970
▁চমৎকার	-3971
▁মৃত	-3972
▁ill	-3973
সন	-3974
▁জবাব	-3975
▁পড়তে	-3976
▁মনো	-3977
▁পারব	-3978
vironment	-3979
▁ভী	-3980
▁থান	-3981
▁trad	-3982
বিদ্যালয়	-3983
▁foot	-3984
▁Thank	-3985
▁হা	-3986
▁ফি	-3987
▁Bank	-3988
▁added	-3989
▁সন্দেহ	-3990
▁সেবা	-3991
▁আসবে	-3992
▁14	-3993
▁অবস্থান	-3994
▁written	-3995
উন্ট	-3996
▁miss	-3997
▁নির্মাণ	-3998
▁করো	-3999
▁জায়গায়	-4000
▁continue	-4001
▁হারিয়ে	-4002
hy	-4003
▁redu	-4004
ফোন	-4005
▁যিহ	-4006
▁উনি	-4007
▁বিকল্প	-4008
▁ডিজ	-4009
ples	-4010
aid	-4011
▁হলেন	-4012
▁knew	-4013
প্ট	-4014
▁এরকম	-4015
▁তারিখ	-4016
▁saw	-4017
▁Court	-4018
▁সিনেমা	-4019
▁phys	-4020
▁ঘটেছে	-4021
▁মুখ্য	-4022
ৌশ	-4023
▁অনুষ্ঠিত	-4024
▁Our	-4025
▁অভিনেত	-4026
াদার	-4027
▁Ahmed	-4028
▁টেলি	-4029
iol	-4030
ডে	-4031
▁মাসে	-4032
শেষে	-4033
▁প্রতিক	-4034
▁Most	-4035
ode	-4036
▁পূ	-4037
▁ভর্তি	-4038
▁ri	-4039
▁div	-4040
,”	-4041
▁যাক	-4042
▁mess	-4043
▁লী	-4044
▁oil	-4045
িলেন	-4046
▁16	-4047
▁required	-4048
▁ভ্রম	-4049
▁American	-4050
ীকে	-4051
▁priv	-4052
▁একাধ	-4053
▁quick	-4054
▁199	-4055
▁বিরোধ	-4056
▁চর	-4057
andid	-4058
▁তুই	-4059
▁দোষ	-4060
▁বলেছিলেন	-4061
▁series	-4062
▁walk	-4063
asons	-4064
▁bank	-4065
▁অবস্থায়	-4066
ush	-4067
▁office	-4068
▁পরিচালনা	-4069
হি	-4070
▁vill	-4071
▁ব্যয়	-4072
▁কাউকে	-4073
স্থার	-4074
▁happens	-4075
▁disease	-4076
▁প্রিয়	-4077
ference	-4078
▁24	-4079
▁Mal	-4080
But	-4081
▁যেকোন	-4082
ences	-4083
টিল	-4084
▁’	-4085
▁বলি	-4086
▁serious	-4087
ask	-4088
বায়	-4089
▁চালু	-4090
▁আসতে	-4091
▁চলা	-4092
ling	-4093
২০	-4094
▁টেক	-4095
▁বক্তব্য	-4096
▁প্রো	-4097
▁With	-4098
ably	-4099
▁Gu	-4100
বাদিক	-4101
ফতার	-4102
সঙ্গে	-4103
cu	-4104
▁final	-4105
▁নিয়ম	-4106
▁প্রস্তাব	-4107
ored	-4108
What	-4109
▁পশ্চিম	-4110
fort	-4111
▁প্রকাশিত	-4112
usband	-4113
▁মহা	-4114
▁চৌ	-4115
▁norm	-4116
এক	-4117
▁উন্নয়ন	-4118
▁demand	-4119
াৎ	-4120
াস্ট	-4121
▁bro	-4122
▁গভীর	-4123
▁Av	-4124
nel	-4125
▁Actually	-4126
▁Yes	-4127
chie	-4128
▁ইর	-4129
শ্বরের	-4130
▁High	-4131
▁বলল	-4132
▁বেশী	-4133
▁বেঁ	-4134
▁West	-4135
▁research	-4136
ব্ধ	-4137
▁দুর্ঘট	-4138
▁ঝুঁকি	-4139
্যালে	-4140
▁খাদ্য	-4141
▁কিছুটা	-4142
▁যিনি	-4143
ুস	-4144
▁tre	-4145
▁পার্থক্য	-4146
▁released	-4147
ছো	-4148
দ্ব	-4149
aster	-4150
▁Her	-4151
▁দৃষ্টি	-4152
hod	-4153
▁লো	-4154
▁ফাইল	-4155
▁এরা	-4156
াম্মদ	-4157
▁making	-4158
▁প্রতিযোগ	-4159
▁17	-4160
াবেক	-4161
▁আকার	-4162
্তা	-4163
▁গেলে	-4164
▁সিন	-4165
▁সংর	-4166
▁বিদেশ	-4167
▁কোর	-4168
idd	-4169
▁13	-4170
▁সম্ভবত	-4171
esides	-4172
▁election	-4173
minist	-4174
▁abs	-4175
▁cases	-4176
▁অ্যান	-4177
▁শ্র	-4178
▁married	-4179
▁benef	-4180
্পন্ন	-4181
▁Air	-4182
ograph	-4183
▁সাংবাদিক	-4184
রায়	-4185
ওয়ে	-4186
▁soft	-4187
tle	-4188
▁পরিচালক	-4189
ছনে	-4190
▁জিজ্ঞাসা	-4191
▁অপার	-4192
ন্স	-4193
▁product	-4194
▁region	-4195
▁depend	-4196
▁মোবাইল	-4197
▁স্ন	-4198
▁অগ্র	-4199
▁প্রতিনি	-4200
▁অনুমতি	-4201
▁ইংল	-4202
তন	-4203
ined	-4204
▁link	-4205
▁cele	-4206
ার্ট	-4207
▁দেখি	-4208
▁idea	-4209
▁someone	-4210
▁cause	-4211
▁living	-4212
ভব	-4213
apan	-4214
▁laun	-4215
etwork	-4216
▁par	-4217
▁লাগবে	-4218
ilar	-4219
ুয়ে	-4220
▁শ্রম	-4221
▁birth	-4222
ঙ্কা	-4223
▁claim	-4224
▁রস	-4225
▁ধার	-4226
▁গ্রেফতার	-4227
▁tri	-4228
▁typ	-4229
▁অ্যাকা	-4230
▁তাপ	-4231
▁study	-4232
▁রাতে	-4233
▁Hoss	-4234
ient	-4235
.”	-4236
স্থান	-4237
▁বললাম	-4238
ney	-4239
▁quality	-4240
▁period	-4241
▁wond	-4242
era	-4243
▁cricket	-4244
▁50	-4245
▁provide	-4246
▁বায়	-4247
▁Bar	-4248
▁হো	-4249
▁decl	-4250
▁গোল	-4251
ee	-4252
▁Best	-4253
▁দিনে	-4254
▁বাণিজ	-4255
ন্ধে	-4256
▁কব	-4257
▁জে	-4258
▁immedi	-4259
▁25	-4260
াণ	-4261
▁largest	-4262
▁Part	-4263
▁পাব	-4264
ciety	-4265
▁taking	-4266
yw	-4267
more	-4268
▁মোহ	-4269
▁ধরণের	-4270
▁watch	-4271
▁Hossain	-4272
▁crit	-4273
▁জরুরি	-4274
লোড	-4275
োঁ	-4276
১৯	-4277
এল	-4278
▁Rahman	-4279
▁chall	-4280
▁রাজ্যের	-4281
▁আগের	-4282
▁complain	-4283
টুকু	-4284
▁অ্যাল	-4285
▁born	-4286
▁একাধিক	-4287
▁deal	-4288
▁জড়িত	-4289
▁কারা	-4290
▁তাহা	-4291
▁dest	-4292
▁অল	-4293
▁বৈশিষ্ট	-4294
▁milit	-4295
▁cal	-4296
আমার	-4297
▁hon	-4298
▁talking	-4299
▁হঠ	-4300
▁সমস্যার	-4301
▁match	-4302
▁গরম	-4303
্যাশন	-4304
▁নিবন্ধ	-4305
▁lim	-4306
▁article	-4307
ক্রমণ	-4308
ops	-4309
▁গু	-4310
ায়ন	-4311
ches	-4312
▁nice	-4313
েনার	-4314
ruct	-4315
uty	-4316
▁মন্ত্রী	-4317
▁sil	-4318
ournal	-4319
ami	-4320
াবাদ	-4321
▁words	-4322
▁mur	-4323
▁থাকি	-4324
ল্যান্ড	-4325
▁নিরাপদ	-4326
▁থাকলে	-4327
▁চুল	-4328
▁husband	-4329
fully	-4330
▁আটক	-4331
▁ছয়	-4332
ama	-4333
▁ইহা	-4334
▁আন্দ	-4335
▁caus	-4336
▁teacher	-4337
▁Will	-4338
▁৯	-4339
▁received	-4340
▁উপভোগ	-4341
▁ঘটনাস্থ	-4342
ousand	-4343
ffort	-4344
ুর্	-4345
▁সাবেক	-4346
▁দুজন	-4347
▁regist	-4348
▁কুম	-4349
▁achie	-4350
▁সাইট	-4351
▁wind	-4352
inal	-4353
▁উদ্য	-4354
▁ডিস	-4355
শিয়ার	-4356
▁এলাকায়	-4357
▁সম্প্রতি	-4358
▁wrote	-4359
স্বর	-4360
▁myself	-4361
come	-4362
▁fail	-4363
▁অনলাইন	-4364
▁চলেছে	-4365
▁পয়	-4366
▁আক্রান্ত	-4367
▁station	-4368
াসের	-4369
In	-4370
▁Comp	-4371
▁উন্নত	-4372
oms	-4373
▁সরকারি	-4374
hov	-4375
icy	-4376
▁ইচ্ছা	-4377
্রয়	-4378
খা	-4379
▁increase	-4380
▁2020	-4381
োনে	-4382
চ্ছিল	-4383
▁worked	-4384
▁North	-4385
▁member	-4386
cri	-4387
uk	-4388
▁জাপ	-4389
▁মাহ	-4390
র্ড	-4391
▁বেস	-4392
▁টেস্ট	-4393
▁Medical	-4394
▁field	-4395
hovah	-4396
▁অধ্য	-4397
▁ক্রিকেট	-4398
▁wants	-4399
▁ঈশ্বর	-4400
▁reasons	-4401
▁একেবারে	-4402
▁বৃষ্টি	-4403
lier	-4404
▁সংগঠ	-4405
▁employ	-4406
▁আর্থ	-4407
▁search	-4408
▁pati	-4409
▁সর্	-4410
পা	-4411
▁Jan	-4412
▁More	-4413
▁dam	-4414
▁sus	-4415
▁বদলে	-4416
▁Sal	-4417
itiz	-4418
▁কংগ্রেস	-4419
▁পৃথিবীর	-4420
▁সাত	-4421
▁ব্যাপক	-4422
▁রেল	-4423
▁vac	-4424
▁চালিয়ে	-4425
▁Ro	-4426
ublic	-4427
▁অবাক	-4428
▁বলার	-4429
▁রক্ষা	-4430
▁মেনে	-4431
row	-4432
21	-4433
▁ত্ব	-4434
িলে	-4435
ইউ	-4436
▁thinking	-4437
▁based	-4438
▁ব্যাখ্যা	-4439
ানিক	-4440
▁haven	-4441
▁রুম	-4442
▁প্রাচ	-4443
জায়	-4444
▁সম্মেল	-4445
▁ব্লগ	-4446
▁গুগ	-4447
▁card	-4448
▁নন	-4449
▁vict	-4450
▁Ali	-4451
▁রাস	-4452
liament	-4453
ram	-4454
▁শিক্ষক	-4455
fra	-4456
ached	-4457
▁listen	-4458
▁date	-4459
▁protect	-4460
▁skin	-4461
▁যিহো	-4462
টিভ	-4463
go	-4464
পাশ	-4465
▁বাঁচ	-4466
▁Mar	-4467
▁writing	-4468
িনের	-4469
▁looked	-4470
ধার	-4471
ogn	-4472
esus	-4473
▁জাম	-4474
▁পাস	-4475
▁ছড়িয়ে	-4476
ports	-4477
▁Health	-4478
▁please	-4479
ডেল	-4480
part	-4481
▁রাজধান	-4482
▁ফ্রান্স	-4483
বণ	-4484
▁দ্য	-4485
ৃহ	-4486
▁method	-4487
▁১৫	-4488
▁ভেত	-4489
▁চুক্তি	-4490
▁gone	-4491
▁Union	-4492
▁filed	-4493
▁পুত	-4494
▁পরিণ	-4495
ison	-4496
▁Jehovah	-4497
িতার	-4498
▁সেন্ট	-4499
হীন	-4500
রাই	-4501
lev	-4502
চল	-4503
▁ভূমিকা	-4504
▁সুস্থ	-4505
▁উপরে	-4506
iver	-4507
▁মুক্ত	-4508
▁অনেকেই	-4509
▁গড়ে	-4510
▁অনুসরণ	-4511
▁low	-4512
▁সর্বোচ্চ	-4513
▁বাঁ	-4514
ঠি	-4515
▁fav	-4516
▁ways	-4517
কালে	-4518
▁viol	-4519
aby	-4520
oday	-4521
lf	-4522
▁হিন্দ	-4523
▁সমান	-4524
▁ঘুর	-4525
aged	-4526
▁দুটো	-4527
▁ফুটবল	-4528
▁First	-4529
aper	-4530
▁Japan	-4531
▁শান্তি	-4532
▁healthy	-4533
acter	-4534
▁ঈশ্বরের	-4535
েরি	-4536
cil	-4537
▁নীতি	-4538
▁Bh	-4539
▁গুণ	-4540
▁বাণিজ্য	-4541
▁হ্র	-4542
▁হতা	-4543
▁door	-4544
▁ডিভাই	-4545
▁leader	-4546
▁উদ্দেশ্য	-4547
▁বলছি	-4548
And	-4549
▁behind	-4550
▁ভীষণ	-4551
▁fast	-4552
▁share	-4553
▁extreme	-4554
▁উল	-4555
▁mob	-4556
▁estab	-4557
▁protest	-4558
▁pictures	-4559
▁দূরে	-4560
▁America	-4561
▁মূলত	-4562
▁Arab	-4563
erson	-4564
▁minutes	-4565
▁outside	-4566
▁half	-4567
বন	-4568
▁আগুন	-4569
কৃত	-4570
▁কোথাও	-4571
▁War	-4572
ances	-4573
▁huge	-4574
▁শিশুদের	-4575
▁nat	-4576
cell	-4577
▁access	-4578
hest	-4579
▁প্রাক	-4580
▁accident	-4581
▁function	-4582
▁সবাইকে	-4583
▁Cor	-4584
het	-4585
▁bring	-4586
▁wait	-4587
▁যুব	-4588
িয়াল	-4589
▁১৮	-4590
▁vers	-4591
pecially	-4592
▁রাখুন	-4593
▁পাওয়ার	-4594
▁pract	-4595
▁জ্ব	-4596
▁fall	-4597
▁শীর্ষ	-4598
টাল	-4599
gn	-4600
▁pray	-4601
▁হবেন	-4602
▁রেক	-4603
▁গ্রেপ্ত	-4604
▁Sheikh	-4605
▁শার	-4606
▁কারো	-4607
oor	-4608
াড়ি	-4609
▁সাফল	-4610
▁sex	-4611
▁চীন	-4612
ald	-4613
▁পূর্ণ	-4614
ক্ষিত	-4615
▁জিজ্ঞেস	-4616
▁আগেই	-4617
▁ant	-4618
্যানে	-4619
iti	-4620
ywood	-4621
▁হইতে	-4622
▁সম্মান	-4623
ollywood	-4624
arendra	-4625
▁effort	-4626
▁সিরিজ	-4627
▁Although	-4628
mir	-4629
hem	-4630
িহ্ন	-4631
দম	-4632
▁কার্ড	-4633
omen	-4634
▁Dire	-4635
itution	-4636
াত্ম	-4637
lect	-4638
▁record	-4639
▁prop	-4640
▁সচিব	-4641
▁candid	-4642
▁অংশগ্রহণ	-4643
▁travel	-4644
্বাস	-4645
▁থাকুন	-4646
asing	-4647
▁গতি	-4648
▁earth	-4649
▁দুর্দ	-4650
▁prin	-4651
▁almost	-4652
omm	-4653
ghan	-4654
▁পাঠানো	-4655
▁দেবে	-4656
ledge	-4657
▁প্রচার	-4658
▁হঠাৎ	-4659
র্গ	-4660
ুম্ব	-4661
াবাহ	-4662
বুক	-4663
rael	-4664
▁নরেন্দ্র	-4665
oon	-4666
লাপ	-4667
▁Aw	-4668
▁মেডি	-4669
সর	-4670
▁_	-4671
▁নেতৃত	-4672
▁ভাষায়	-4673
ব্র	-4674
▁স্বামী	-4675
▁couple	-4676
owd	-4677
▁drink	-4678
▁page	-4679
▁প্রাথমিক	-4680
▁building	-4681
▁front	-4682
▁ru	-4683
▁loved	-4684
▁পরিশ	-4685
fer	-4686
fect	-4687
▁জেনে	-4688
▁মানসিক	-4689
▁পরের	-4690
▁direct	-4691
ানির	-4692
▁Jesus	-4693
▁games	-4694
aps	-4695
▁প্রকৃত	-4696
োহ	-4697
▁তাক	-4698
cle	-4699
▁ক্যা	-4700
▁জটিল	-4701
ners	-4702
োয়াড়	-4703
▁নিয়মিত	-4704
▁যুগ	-4705
▁বিক্রি	-4706
▁জানানো	-4707
▁anim	-4708
▁address	-4709
▁capital	-4710
▁বন্দ	-4711
▁glo	-4712
▁Narendra	-4713
▁areas	-4714
▁সম্বন্ধে	-4715
▁ব্যাংক	-4716
পূর্	-4717
▁বিক্ষ	-4718
▁ডাউন	-4719
This	-4720
▁অবি	-4721
▁চ্যালে	-4722
▁জাহ	-4723
▁গ্রুপ	-4724
▁exist	-4725
▁রান্না	-4726
▁amount	-4727
▁হাল	-4728
▁উদ্ব	-4729
ivid	-4730
▁সকলের	-4731
▁forward	-4732
▁উপজ	-4733
▁longer	-4734
▁নেটওয়	-4735
▁হত	-4736
▁exactly	-4737
itter	-4738
ভূত	-4739
▁provided	-4740
মন্ত্র	-4741
▁compet	-4742
▁অঞ্চল	-4743
▁নেয়	-4744
▁নেওয়ার	-4745
ুটি	-4746
িদ	-4747
▁chair	-4748
▁শ্রেণ	-4749
▁যাচ্ছি	-4750
▁doub	-4751
▁ener	-4752
▁celebr	-4753
▁সার্ভ	-4754
....	-4755
ada	-4756
▁ওয়েব	-4757
▁gre	-4758
▁বিভাগের	-4759
▁rights	-4760
▁দৃশ্য	-4761
▁ইঞ্জ	-4762
▁অ্যাপ্লি	-4763
aily	-4764
ivil	-4765
omes	-4766
▁সপ্তাহে	-4767
▁upon	-4768
▁আচ	-4769
▁clean	-4770
ম্ম	-4771
resent	-4772
ামি	-4773
ala	-4774
over	-4775
▁Fin	-4776
▁ধরা	-4777
ony	-4778
ণা	-4779
▁উপলব্ধ	-4780
▁Cl	-4781
ube	-4782
▁অল্প	-4783
▁সাক্ষ	-4784
▁নিজস্ব	-4785
দ্য	-4786
▁ফ্রি	-4787
▁শো	-4788
▁বলছে	-4789
▁লাল	-4790
▁School	-4791
▁arri	-4792
NP	-4793
▁প্রয	-4794
েতা	-4795
▁camp	-4796
▁রাজনীতি	-4797
▁বিএন	-4798
▁amaz	-4799
দিনের	-4800
▁ধীরে	-4801
▁Other	-4802
▁এয়ার	-4803
ites	-4804
ari	-4805
▁comment	-4806
▁director	-4807
anger	-4808
▁British	-4809
atures	-4810
▁Gand	-4811
▁বিনিয়োগ	-4812
▁Israel	-4813
▁মুখে	-4814
▁কিংবা	-4815
▁গোপন	-4816
▁মুসলিম	-4817
▁England	-4818
▁Besides	-4819
▁তত	-4820
▁সংগ্রহ	-4821
▁single	-4822
▁seems	-4823
▁ফে	-4824
ung	-4825
াইনে	-4826
▁উপযুক্ত	-4827
ুয়ার	-4828
▁inside	-4829
▁opt	-4830
▁পাশে	-4831
বেল	-4832
▁ইচ্ছে	-4833
▁occas	-4834
▁কাঁ	-4835
▁Iran	-4836
▁মুহূর্তে	-4837
ামত	-4838
▁fr	-4839
▁mult	-4840
▁ক্ষেত্র	-4841
▁solution	-4842
▁ছবির	-4843
িনীর	-4844
ামূল	-4845
▁kids	-4846
selves	-4847
▁গাছ	-4848
▁অনুমোদ	-4849
▁create	-4850
▁উইন্ড	-4851
▁শুনতে	-4852
িখিত	-4853
▁বেড়	-4854
▁ব্যর্থ	-4855
▁mater	-4856
▁Ministry	-4857
▁ব্রিটিশ	-4858
▁আফগান	-4859
▁মালিক	-4860
▁network	-4861
▁appear	-4862
▁King	-4863
▁buy	-4864
▁আওয়	-4865
olk	-4866
▁condu	-4867
▁মহান	-4868
▁সকলেই	-4869
▁যোগ্য	-4870
▁মস	-4871
▁হাঁ	-4872
ouncil	-4873
▁sound	-4874
▁yes	-4875
▁changes	-4876
▁ছবিতে	-4877
mp	-4878
▁hands	-4879
▁takes	-4880
েসে	-4881
▁non	-4882
▁জ্ঞান	-4883
▁কিন	-4884
els	-4885
▁1.	-4886
▁prep	-4887
োর্ড	-4888
▁বিবেচনা	-4889
▁মহাস	-4890
▁ভুলে	-4891
oose	-4892
▁দয়া	-4893
▁pot	-4894
▁এভাবে	-4895
▁sw	-4896
ার্ল	-4897
▁পৌঁছ	-4898
বাচক	-4899
▁Africa	-4900
rect	-4901
▁Afghan	-4902
▁jud	-4903
▁মাসের	-4904
▁বেঁচে	-4905
িয়ায়	-4906
▁pressure	-4907
াইভ	-4908
▁Have	-4909
▁দৈ	-4910
▁দেখার	-4911
ুনিক	-4912
▁type	-4913
▁install	-4914
▁সোশ	-4915
fraid	-4916
▁afraid	-4917
ani	-4918
▁TV	-4919
ruction	-4920
িক্স	-4921
▁গঠন	-4922
▁Again	-4923
▁বছরে	-4924
▁চিহ্ন	-4925
▁আমায়	-4926
▁issues	-4927
▁জুল	-4928
▁অভিনেতা	-4929
▁মেডিকেল	-4930
িলাম	-4931
▁recogn	-4932
ার্জ	-4933
▁ইনস্	-4934
ূর	-4935
▁চৌধ	-4936
টক	-4937
tain	-4938
▁Fe	-4939
▁পরিচয়	-4940
্রিম	-4941
▁বিপর	-4942
▁internet	-4943
▁অভিয	-4944
▁parts	-4945
ন্ত্রণাল	-4946
▁বিজয়	-4947
of	-4948
▁super	-4949
▁পড়েছে	-4950
▁Later	-4951
▁বিনামূল	-4952
cl	-4953
agement	-4954
ঙ্গল	-4955
তন্ত্র	-4956
শু	-4957
▁হোট	-4958
ৌশল	-4959
▁expect	-4960
▁ক্ষমা	-4961
▁Kum	-4962
স্বরূপ	-4963
▁tour	-4964
▁কোটি	-4965
▁above	-4966
মুখ	-4967
ify	-4968
▁যৌন	-4969
ceed	-4970
ox	-4971
airs	-4972
ma	-4973
▁industry	-4974
CC	-4975
▁Gr	-4976
▁town	-4977
▁আকাশ	-4978
▁fine	-4979
aly	-4980
▁আওয়ামী	-4981
▁স্বীকার	-4982
▁En	-4983
রাসরি	-4984
duc	-4985
▁veh	-4986
▁energy	-4987
▁anymore	-4988
ohn	-4989
▁actor	-4990
▁ভ্রমণ	-4991
uf	-4992
▁নিজেই	-4993
▁states	-4994
▁cook	-4995
▁গুলি	-4996
▁consider	-4997
▁deb	-4998
▁অভ্য	-4999
▁mobile	-5000
▁Lord	-5001
জু	-5002
বেগ	-5003
▁বস্ত	-5004
▁আহমে	-5005
▁১২	-5006
▁বাধ্য	-5007
▁ঘন	-5008
▁মাথা	-5009
▁society	-5010
▁সরাসরি	-5011
▁সাহ	-5012
▁normal	-5013
▁কোম্পানি	-5014
▁wonder	-5015
ilt	-5016
▁খোঁ	-5017
adu	-5018
▁মডেল	-5019
mit	-5020
▁gl	-5021
iday	-5022
▁hair	-5023
▁বেল	-5024
▁মেয়	-5025
রত	-5026
▁হলেও	-5027
elt	-5028
▁শাস	-5029
▁বলিউ	-5030
▁individ	-5031
ulations	-5032
ilities	-5033
gress	-5034
▁Of	-5035
্থ	-5036
▁মিশ্র	-5037
▁ess	-5038
▁Gandhi	-5039
▁creat	-5040
▁শাস্ত	-5041
▁prob	-5042
▁জুন	-5043
▁forg	-5044
▁ডাক্তার	-5045
▁প্রাপ্ত	-5046
্যাম্প	-5047
▁আকর্ষণ	-5048
▁season	-5049
▁দিবস	-5050
▁oppos	-5051
ival	-5052
▁purp	-5053
▁নিউজ	-5054
▁প্রশিক্ষ	-5055
▁শীত	-5056
ique	-5057
▁অনুরোধ	-5058
▁ওঠে	-5059
▁Kar	-5060
▁port	-5061
enior	-5062
▁similar	-5063
িকাংশ	-5064
▁দায়ের	-5065
▁গুরুতর	-5066
▁2019	-5067
বারের	-5068
▁অব্যা	-5069
দেশের	-5070
▁die	-5071
জিত	-5072
▁অ্যাড	-5073
▁নজর	-5074
▁programm	-5075
itting	-5076
▁mist	-5077
▁early	-5078
raz	-5079
to	-5080
sequ	-5081
▁check	-5082
▁সৈ	-5083
▁করেনি	-5084
োপুরি	-5085
utions	-5086
▁confir	-5087
▁web	-5088
▁বৃহত্তম	-5089
▁খুন	-5090
ুতি	-5091
ফার	-5092
▁sold	-5093
▁involved	-5094
▁সেগুলো	-5095
▁ক্লিক	-5096
▁তোর	-5097
োনাল	-5098
▁users	-5099
কালীন	-5100
▁del	-5101
▁thousand	-5102
▁জন্যই	-5103
▁Russia	-5104
oard	-5105
▁aw	-5106
▁আন্দোল	-5107
▁medical	-5108
▁রাখার	-5109
▁আদালত	-5110
▁করোনা	-5111
olute	-5112
▁ওষ	-5113
▁spread	-5114
▁স্থাপন	-5115
▁easily	-5116
▁অধিকাংশ	-5117
▁পুরোপুরি	-5118
▁আমেরিকান	-5119
▁created	-5120
▁expected	-5121
▁ডেটা	-5122
▁weeks	-5123
ef	-5124
▁চাকরি	-5125
▁ডিগ	-5126
▁sum	-5127
য়নের	-5128
▁বিশাল	-5129
▁material	-5130
এব	-5131
▁sto	-5132
▁আর্থিক	-5133
ূপে	-5134
েইল	-5135
▁পাবে	-5136
▁জমা	-5137
aled	-5138
▁লেখক	-5139
▁waiting	-5140
▁contact	-5141
▁বিক্ষোভ	-5142
▁নিষ	-5143
ন্দন	-5144
▁Test	-5145
▁লাগছে	-5146
▁নিকট	-5147
জ্ঞা	-5148
ables	-5149
▁কমে	-5150
র্ধ	-5151
umbai	-5152
▁ইত্য	-5153
িলের	-5154
▁বিবাহ	-5155
▁কৃতজ্ঞ	-5156
▁Today	-5157
ancial	-5158
▁আসা	-5159
ফা	-5160
▁মিলিয়ন	-5161
▁meas	-5162
টাও	-5163
▁Cons	-5164
▁bed	-5165
▁গেছেন	-5166
▁নেন	-5167
▁শহরের	-5168
la	-5169
urs	-5170
▁aware	-5171
▁তুলনায়	-5172
▁ens	-5173
▁সেক	-5174
▁Qu	-5175
ামা	-5176
▁ছাড়াও	-5177
▁himself	-5178
▁আসল	-5179
▁সড়	-5180
▁famil	-5181
বাহী	-5182
্যাশনাল	-5183
▁line	-5184
▁terror	-5185
▁goes	-5186
▁শারীর	-5187
▁Educ	-5188
▁আহমেদ	-5189
▁অম	-5190
▁বোন	-5191
▁Mad	-5192
▁City	-5193
টিন	-5194
▁ট্যা	-5195
্যাপী	-5196
▁Ram	-5197
▁জিতে	-5198
▁student	-5199
▁recently	-5200
▁citiz	-5201
▁আমেরিকা	-5202
▁Sw	-5203
erc	-5204
ছুর	-5205
▁সম্পন্ন	-5206
▁tried	-5207
▁lik	-5208
olution	-5209
▁বর্ণনা	-5210
▁natural	-5211
▁medic	-5212
াদু	-5213
▁কান	-5214
▁mem	-5215
▁চলতে	-5216
শে	-5217
▁suff	-5218
▁aren	-5219
▁গুলো	-5220
▁ওষুধ	-5221
▁হুম	-5222
ষ্ট্রে	-5223
েত্রে	-5224
▁ডাক	-5225
▁করিনি	-5226
▁রায়	-5227
▁বসবাস	-5228
▁দাঁড়	-5229
▁অস্ত্র	-5230
▁40	-5231
ze	-5232
▁মতে	-5233
▁সংরক্ষণ	-5234
▁Wind	-5235
▁defin	-5236
▁প্রতিরোধ	-5237
raw	-5238
▁orig	-5239
▁ওজন	-5240
ার্থী	-5241
▁বলছেন	-5242
▁baby	-5243
icro	-5244
▁ব্যক্তির	-5245
▁সোশ্যাল	-5246
avy	-5247
োব	-5248
▁জোর	-5249
▁closed	-5250
▁signific	-5251
▁অনুভব	-5252
ator	-5253
ন্টা	-5254
)।	-5255
▁তাড়	-5256
▁Director	-5257
▁মজা	-5258
▁নম্বর	-5259
▁পৃষ্ঠ	-5260
▁Mumbai	-5261
▁খুল	-5262
aring	-5263
▁Abdul	-5264
▁সংযুক্ত	-5265
াগত	-5266
ises	-5267
▁deg	-5268
াইড	-5269
▁color	-5270
▁trust	-5271
টিয়ে	-5272
▁জেনার	-5273
▁cam	-5274
▁Internet	-5275
ত্ত্ব	-5276
▁Current	-5277
ুকুর	-5278
▁আল্লাহর	-5279
▁BNP	-5280
uary	-5281
ID	-5282
▁কালো	-5283
▁খুঁজ	-5284
▁village	-5285
▁নো	-5286
▁অবশেষে	-5287
▁rules	-5288
▁self	-5289
reng	-5290
▁তাও	-5291
▁মোহাম্মদ	-5292
▁গ্ল	-5293
▁স্থানে	-5294
▁আসুন	-5295
▁administ	-5296
▁অন্ধ	-5297
ricult	-5298
▁deep	-5299
তেও	-5300
▁ধ্ব	-5301
▁যাত্র	-5302
▁Cup	-5303
▁কারও	-5304
bers	-5305
ক্ষায়	-5306
▁occasion	-5307
টিউ	-5308
▁মধ্যেই	-5309
-19	-5310
▁চূ	-5311
▁সংস্করণ	-5312
নীয়	-5313
▁black	-5314
▁specific	-5315
mar	-5316
▁এলাকা	-5317
▁অনুসারে	-5318
াসে	-5319
▁গৃহ	-5320
▁মিথ	-5321
▁Pri	-5322
ging	-5323
▁প্রদর্শন	-5324
▁suggest	-5325
▁ক্যাল	-5326
▁Kumar	-5327
ধে	-5328
▁স্থায়ী	-5329
▁deter	-5330
▁playing	-5331
▁পেয়েছে	-5332
aff	-5333
▁চৌধুরী	-5334
▁প্যা	-5335
▁Prad	-5336
udi	-5337
onse	-5338
কল	-5339
▁প্রয়োগ	-5340
▁software	-5341
▁journal	-5342
▁Ear	-5343
▁ফেসবুক	-5344
▁গোটা	-5345
▁usually	-5346
▁মিডিয়া	-5347
▁কঠোর	-5348
▁বেড়ে	-5349
তী	-5350
▁শরীরের	-5351
uted	-5352
▁red	-5353
ঢ়	-5354
▁private	-5355
reedom	-5356
▁প্রভ	-5357
▁সংযোগ	-5358
মাধ্য	-5359
ensive	-5360
▁details	-5361
▁mag	-5362
▁নিঃ	-5363
▁হামলা	-5364
▁তাদেরকে	-5365
▁হইবে	-5366
সী	-5367
বাচিত	-5368
▁পারিনি	-5369
সমূহ	-5370
▁aff	-5371
▁ডিজি	-5372
▁sat	-5373
ব্যাপী	-5374
▁ইংরেজি	-5375
▁mot	-5376
rench	-5377
্নে	-5378
▁quickly	-5379
▁ভিত্তি	-5380
▁হইল	-5381
স্তি	-5382
ংলা	-5383
ানী	-5384
empt	-5385
▁danger	-5386
▁temper	-5387
▁হিন্দু	-5388
▁মানুষকে	-5389
▁মুম্ব	-5390
▁Sci	-5391
▁European	-5392
▁গেলাম	-5393
▁football	-5394
ondon	-5395
▁gave	-5396
▁request	-5397
▁চাহ	-5398
▁পূরণ	-5399
▁আধুনিক	-5400
▁cry	-5401
▁যুক্তরাজ	-5402
▁মিস	-5403
ন্দের	-5404
▁পুত্র	-5405
dom	-5406
itute	-5407
ots	-5408
roid	-5409
riage	-5410
itor	-5411
▁returned	-5412
▁চুপ	-5413
▁--	-5414
▁reading	-5415
icles	-5416
▁অব্যাহত	-5417
▁আলোচ	-5418
▁ক্রম	-5419
▁আসলেই	-5420
ড়ান্ত	-5421
▁শহরে	-5422
tt	-5423
ম্ভব	-5424
▁email	-5425
রূপ	-5426
মন্ত্রীর	-5427
পাল	-5428
▁nation	-5429
▁মেশ	-5430
acy	-5431
▁তারপরে	-5432
▁Mess	-5433
▁অধ্যাপ	-5434
▁ডাউনলোড	-5435
▁decided	-5436
▁Md	-5437
irus	-5438
▁উদ্যোগ	-5439
▁লন্ড	-5440
▁letter	-5441
▁থাম	-5442
▁ফুল	-5443
▁passed	-5444
াত্মক	-5445
inese	-5446
▁located	-5447
▁হ্রাস	-5448
মিক	-5449
▁Rep	-5450
▁France	-5451
▁opin	-5452
▁Kap	-5453
▁worry	-5454
▁apply	-5455
▁Please	-5456
▁ur	-5457
▁দোক	-5458
▁দরজা	-5459
ny	-5460
প্রাপ্ত	-5461
গণ	-5462
▁Twitter	-5463
▁late	-5464
▁তরুণ	-5465
▁মন্দির	-5466
▁অভিযুক্ত	-5467
men	-5468
▁আয়োজন	-5469
▁weight	-5470
ষ্ণ	-5471
▁গুগল	-5472
▁নভ	-5473
lling	-5474
▁198	-5475
▁Did	-5476
▁জেনারেল	-5477
▁মায়ের	-5478
▁মাছ	-5479
▁গবেষণ	-5480
▁সংঘ	-5481
▁places	-5482
▁সন্ত্র	-5483
▁percent	-5484
▁Read	-5485
▁military	-5486
▁chance	-5487
নো	-5488
আপনি	-5489
গুলিকে	-5490
▁sister	-5491
▁except	-5492
ভিড	-5493
hern	-5494
▁streng	-5495
▁১১	-5496
▁Tur	-5497
antly	-5498
▁রং	-5499
থর	-5500
▁spend	-5501
▁রেকর্ড	-5502
রাট	-5503
ক্তন	-5504
▁আশ্চ	-5505
▁বলেছে	-5506
▁finally	-5507
▁উন্নতি	-5508
▁ইহ	-5509
▁বিবৃতি	-5510
প্রে	-5511
by	-5512
▁হতো	-5513
▁জানায়	-5514
▁বাল	-5515
▁positive	-5516
▁thanks	-5517
▁কাপ	-5518
▁cold	-5519
ৃতির	-5520
itness	-5521
▁সমালো	-5522
▁space	-5523
▁London	-5524
ularly	-5525
▁amazing	-5526
▁improve	-5527
▁সুরক্ষা	-5528
▁দেহ	-5529
▁আরেকটি	-5530
▁বলুন	-5531
ams	-5532
▁century	-5533
▁John	-5534
▁towards	-5535
▁ইয়	-5536
▁সচেতন	-5537
▁তাপমাত্র	-5538
ঙ্গি	-5539
টেড	-5540
জনেই	-5541
ফে	-5542
▁Windows	-5543
...]	-5544
▁অনলাইনে	-5545
▁independ	-5546
▁আঁ	-5547
▁cir	-5548
▁ধাপ	-5549
▁fund	-5550
▁বটে	-5551
▁অনেকে	-5552
্যান্ডের	-5553
▁separ	-5554
▁York	-5555
▁den	-5556
ইন	-5557
▁Kash	-5558
▁drug	-5559
▁source	-5560
▁গান্ধ	-5561
order	-5562
▁যাত্রী	-5563
▁file	-5564
▁টুইটার	-5565
▁কমিশ	-5566
▁mention	-5567
▁অধ্যাপক	-5568
▁require	-5569
▁Pradesh	-5570
ateg	-5571
▁Fore	-5572
▁কাঠ	-5573
▁total	-5574
▁UK	-5575
▁felt	-5576
▁বিদ্যাল	-5577
▁Ke	-5578
▁করেছিলাম	-5579
▁প্রাক্তন	-5580
▁জানাই	-5581
▁একসঙ্গে	-5582
▁বরা	-5583
সংঘ	-5584
▁Before	-5585
▁খোলা	-5586
▁খেলতে	-5587
ointed	-5588
essional	-5589
▁মন্ত্র	-5590
▁197	-5591
▁likely	-5592
খ্যাত	-5593
িকাশ	-5594
োধন	-5595
▁foreign	-5596
ober	-5597
▁আলম	-5598
▁PM	-5599
▁চিন	-5600
টাকে	-5601
▁daily	-5602
▁Mohammad	-5603
কী	-5604
ওয়ার্ড	-5605
▁workers	-5606
▁21	-5607
▁er	-5608
▁পর্যায়ে	-5609
ights	-5610
▁কাটা	-5611
রো	-5612
তিক্রম	-5613
▁এখানেই	-5614
iddle	-5615
দ্দ	-5616
▁বজায়	-5617
pper	-5618
▁farm	-5619
▁ইনস্ট	-5620
pping	-5621
▁প্রাচীন	-5622
▁wish	-5623
াইজ	-5624
সাথে	-5625
▁অধিক	-5626
aught	-5627
▁খাওয়া	-5628
▁শ্রমিক	-5629
ability	-5630
▁সহযোগিতা	-5631
▁worth	-5632
▁dig	-5633
ভূতি	-5634
▁থানায়	-5635
োরে	-5636
▁key	-5637
▁makes	-5638
▁Ste	-5639
▁চূড়ান্ত	-5640
▁হাসপাতাল	-5641
দ্ধা	-5642
▁কানা	-5643
▁docu	-5644
▁লক্ষণ	-5645
▁সার্ভিস	-5646
▁আবি	-5647
▁অভিনন্দন	-5648
▁অনুষ্ঠান	-5649
▁যাবেন	-5650
▁মোদী	-5651
▁Ha	-5652
▁শুভে	-5653
লিখিত	-5654
▁object	-5655
▁types	-5656
ification	-5657
▁ছবিটি	-5658
▁ঘন্টা	-5659
ude	-5660
▁স্কুলে	-5661
▁শি	-5662
▁স্মার্ট	-5663
▁enc	-5664
ctober	-5665
▁প্রকার	-5666
head	-5667
▁এমনটা	-5668
▁break	-5669
▁সুই	-5670
▁দেবেন	-5671
arr	-5672
▁খেলে	-5673
বদ্ধ	-5674
▁June	-5675
irit	-5676
ফর্ম	-5677
▁download	-5678
▁prote	-5679
▁opened	-5680
atic	-5681
জনকে	-5682
▁যথা	-5683
▁Chinese	-5684
িত্ত	-5685
ণে	-5686
▁অসম্ভব	-5687
▁অঙ্গ	-5688
▁Prof	-5689
▁ডলার	-5690
▁জুড়ে	-5691
▁z	-5692
▁seven	-5693
▁জুলাই	-5694
▁শিশুর	-5695
▁সর্বাধ	-5696
iding	-5697
▁response	-5698
▁July	-5699
▁দিলেন	-5700
▁এজন্য	-5701
▁pan	-5702
▁চলবে	-5703
▁assist	-5704
▁সহজেই	-5705
▁engine	-5706
▁টেব	-5707
▁Asia	-5708
▁কবে	-5709
▁cur	-5710
▁চির	-5711
▁কমপক্ষে	-5712
▁অক্ট	-5713
▁পড়াশ	-5714
▁বুদ্ধ	-5715
▁কুমার	-5716
▁brought	-5717
▁user	-5718
▁বাজে	-5719
গুলোতে	-5720
▁বিমানব	-5721
aur	-5722
▁পেয়েছি	-5723
▁অনি	-5724
ীয়তা	-5725
▁গড়	-5726
শ্ম	-5727
ুৎ	-5728
▁সেপ্ট	-5729
50	-5730
▁capt	-5731
▁Sc	-5732
্যাগ	-5733
তিনি	-5734
pril	-5735
▁films	-5736
▁কমান	-5737
▁religion	-5738
▁পাত	-5739
▁মাইক্র	-5740
▁2018	-5741
▁রাজধানী	-5742
ara	-5743
▁threat	-5744
▁একদিন	-5745
▁actress	-5746
▁correct	-5747
▁পর্ব	-5748
▁ডিজাইন	-5749
▁সামান্য	-5750
▁murder	-5751
▁মিনিট	-5752
▁জানুয়ার	-5753
atform	-5754
▁১৯৯	-5755
▁অন্যদের	-5756
▁এপ্র	-5757
▁এখান	-5758
▁Stud	-5759
iety	-5760
▁আঘাত	-5761
▁affe	-5762
▁teams	-5763
▁বলব	-5764
ptember	-5765
▁ব্যবসায়	-5766
ন্ব	-5767
▁লেগেছে	-5768
▁ban	-5769
▁save	-5770
There	-5771
▁award	-5772
▁করতেন	-5773
▁অঞ্চলে	-5774
imate	-5775
▁বরং	-5776
▁সামরিক	-5777
▁অভাব	-5778
▁players	-5779
ali	-5780
▁একদম	-5781
▁ইতিমধ্যে	-5782
▁দিল্ল	-5783
েক্ট	-5784
▁উত্প	-5785
▁চলুন	-5786
▁Spe	-5787
year	-5788
ommend	-5789
েতু	-5790
▁চিনি	-5791
▁modern	-5792
▁সেল	-5793
▁বাড়ছে	-5794
িলা	-5795
▁এসেছি	-5796
ঞ্জাম	-5797
▁নিখ	-5798
▁Party	-5799
▁পৌঁছে	-5800
তুমি	-5801
▁শারীরিক	-5802
▁French	-5803
এইচ	-5804
ened	-5805
▁stopped	-5806
▁খুলে	-5807
সার	-5808
ape	-5809
▁March	-5810
▁politics	-5811
cember	-5812
▁স্বীক	-5813
▁হক	-5814
কেও	-5815
▁হাসান	-5816
যাপন	-5817
▁জিত	-5818
্যানেল	-5819
▁বাড়ির	-5820
▁নেয়া	-5821
olutely	-5822
▁smart	-5823
েম্ব	-5824
▁Alam	-5825
▁রাস্তা	-5826
▁চোখে	-5827
▁Kashmir	-5828
▁রিপোর্ট	-5829
▁photos	-5830
▁ইত্যাদি	-5831
▁upd	-5832
▁বিশেষজ্ঞ	-5833
▁tom	-5834
▁release	-5835
ার্থীদের	-5836
সুম	-5837
▁অগ	-5838
atives	-5839
▁host	-5840
▁ন্য	-5841
ills	-5842
▁sad	-5843
▁January	-5844
▁নৌ	-5845
▁reality	-5846
▁send	-5847
▁ones	-5848
▁গ্রী	-5849
▁জেলার	-5850
▁consum	-5851
▁সর্বাধিক	-5852
▁Child	-5853
▁whether	-5854
▁বিধ	-5855
room	-5856
▁previous	-5857
▁শর্ত	-5858
ুতে	-5859
▁initi	-5860
▁Was	-5861
▁দেখেছি	-5862
▁ভাইরা	-5863
▁এফ	-5864
▁কাট	-5865
ার্ন	-5866
▁Germany	-5867
▁Ass	-5868
rodu	-5869
▁সমুদ্র	-5870
▁যেকোনো	-5871
ental	-5872
,"	-5873
বিধান	-5874
▁Home	-5875
▁feeling	-5876
2.	-5877
▁গিয়েছিল	-5878
▁disapp	-5879
▁October	-5880
▁loss	-5881
▁সর্বদা	-5882
▁imm	-5883
▁photo	-5884
▁মিলিয়ে	-5885
▁আসার	-5886
▁আলী	-5887
ufact	-5888
▁perfect	-5889
▁hur	-5890
▁পরিচালিত	-5891
▁value	-5892
crib	-5893
▁পড়ুন	-5894
▁নিশ্চয়ই	-5895
ডেট	-5896
semb	-5897
lu	-5898
▁সন্ত্রাস	-5899
▁looks	-5900
যে	-5901
▁পুনরায়	-5902
▁শুভেচ্ছা	-5903
▁persons	-5904
▁সক্রিয়	-5905
জিং	-5906
▁[...]	-5907
▁চীনের	-5908
▁et	-5909
▁দাও	-5910
▁compan	-5911
▁cancer	-5912
য়েড	-5913
▁বার্তা	-5914
▁comb	-5915
▁পয়েন্ট	-5916
▁Mr	-5917
▁প্রযোজ	-5918
▁মোক	-5919
▁Mos	-5920
▁message	-5921
adem	-5922
▁features	-5923
▁মাথায়	-5924
▁ট্রেন	-5925
ীনে	-5926
imum	-5927
▁East	-5928
▁দর্শ	-5929
▁আদেশ	-5930
▁science	-5931
▁lab	-5932
▁থাকবেন	-5933
▁পত্র	-5934
wh	-5935
▁বিশ্বকা	-5936
▁আইনের	-5937
▁legal	-5938
▁earlier	-5939
▁foc	-5940
▁UN	-5941
itable	-5942
▁মাঠ	-5943
▁ওয়েবসাই	-5944
▁white	-5945
ift	-5946
oura	-5947
▁আবদুল	-5948
▁যত্ন	-5949
▁position	-5950
▁vacc	-5951
▁ver	-5952
▁টিভি	-5953
▁প্লে	-5954
▁কলক	-5955
▁ste	-5956
▁বেরিয়ে	-5957
▁April	-5958
▁কাহ	-5959
▁আব্দ	-5960
▁subject	-5961
▁লাখ	-5962
▁Anyway	-5963
▁উৎপাদন	-5964
ান্তে	-5965
▁কাজটি	-5966
দায়	-5967
▁মতামত	-5968
▁পূর্বে	-5969
▁ইলে	-5970
▁একেবারেই	-5971
yle	-5972
▁অস্বীকার	-5973
পু	-5974
▁scient	-5975
▁প্রতিশ	-5976
▁গঠিত	-5977
▁Council	-5978
rah	-5979
্রিক	-5980
▁অদ্	-5981
▁dark	-5982
▁respond	-5983
▁পল	-5984
▁associ	-5985
েনা	-5986
▁Below	-5987
▁সূত্র	-5988
idered	-5989
▁উত্তে	-5990
▁পরীক্ষার	-5991
▁বিধান	-5992
্লিষ্ট	-5993
▁probably	-5994
undred	-5995
▁shoot	-5996
▁ap	-5997
▁শী	-5998
▁table	-5999
▁নির্ধারণ	-6000
▁Maybe	-6001
দীর	-6002
▁December	-6003
▁device	-6004
▁Anyone	-6005
▁অর্থনীতি	-6006
▁(2	-6007
▁faith	-6008
▁driver	-6009
▁higher	-6010
ন্দ্র	-6011
▁রইল	-6012
ত্তর	-6013
াতক	-6014
▁Among	-6015
▁সকালে	-6016
▁king	-6017
েইন	-6018
▁reached	-6019
▁goal	-6020
▁নিয়েছে	-6021
▁spoke	-6022
▁ভিত্তিতে	-6023
▁জাতিসংঘ	-6024
▁হয়ত	-6025
val	-6026
▁রাখে	-6027
▁বিকাশ	-6028
খি	-6029
▁Sat	-6030
ক্ষর	-6031
▁mach	-6032
ane	-6033
▁Dist	-6034
▁তবুও	-6035
▁লাইন	-6036
▁জানতাম	-6037
enced	-6038
▁pat	-6039
▁rate	-6040
লেট	-6041
োনার	-6042
▁steps	-6043
anka	-6044
▁tou	-6045
্প্র	-6046
▁ক্রিকে	-6047
▁Life	-6048
▁wide	-6049
▁পরিষ	-6050
ভে	-6051
▁poll	-6052
▁neg	-6053
▁ভালোবাসা	-6054
▁৩০	-6055
▁cell	-6056
▁fell	-6057
▁Az	-6058
illed	-6059
▁launched	-6060
▁text	-6061
ooper	-6062
enger	-6063
▁river	-6064
▁ground	-6065
▁wouldn	-6066
▁নেমে	-6067
▁ব্যথা	-6068
atory	-6069
▁পরিণত	-6070
্লা	-6071
nes	-6072
▁বন	-6073
▁ওটা	-6074
▁প্রচে	-6075
▁হেল	-6076
mission	-6077
▁version	-6078
▁marriage	-6079
▁কতটা	-6080
▁Serv	-6081
▁economic	-6082
▁dom	-6083
▁মিথ্যা	-6084
▁পৃথিবী	-6085
▁2021	-6086
ossible	-6087
▁প্রের	-6088
হেতু	-6089
▁allowed	-6090
্লাম	-6091
son	-6092
▁গেলেন	-6093
▁কুকুর	-6094
raft	-6095
▁ডিজিটাল	-6096
▁ক্রে	-6097
▁করেই	-6098
▁stat	-6099
▁flow	-6100
▁infe	-6101
▁উপকার	-6102
oes	-6103
▁2.	-6104
▁টেলিভ	-6105
ta	-6106
▁vot	-6107
▁hy	-6108
▁admitted	-6109
▁নিচের	-6110
▁declared	-6111
▁sud	-6112
▁emer	-6113
ese	-6114
গির	-6115
▁Somet	-6116
ugust	-6117
▁অসুস্থ	-6118
▁কমিটির	-6119
▁democ	-6120
াব্দ	-6121
▁global	-6122
abad	-6123
▁repl	-6124
▁career	-6125
wise	-6126
▁Women	-6127
্রুয়ার	-6128
গার	-6129
▁উপজেলা	-6130
avirus	-6131
▁কথাটা	-6132
▁সন্তানের	-6133
▁communic	-6134
▁girls	-6135
▁built	-6136
▁biggest	-6137
▁ট্রে	-6138
▁Android	-6139
!"	-6140
▁যেটা	-6141
▁খেলার	-6142
▁ডায়	-6143
▁Their	-6144
▁আহ্ব	-6145
ঙে	-6146
▁মেয়ের	-6147
▁উইন্ডোজ	-6148
▁electric	-6149
lled	-6150
▁আক্রমণ	-6151
▁সরঞ্জাম	-6152
▁fru	-6153
▁কোড	-6154
রির	-6155
▁কৌশল	-6156
▁খেতে	-6157
▁সাদা	-6158
▁Kore	-6159
▁Take	-6160
▁Ak	-6161
▁slow	-6162
▁ফা	-6163
েব্রুয়ার	-6164
▁saf	-6165
▁চারটি	-6166
▁freedom	-6167
িদ্ধ	-6168
▁নীচে	-6169
য়েন	-6170
ila	-6171
হুল	-6172
▁Awami	-6173
▁code	-6174
▁Well	-6175
▁প্রে	-6176
▁আদালতে	-6177
ler	-6178
▁sun	-6179
ees	-6180
▁dog	-6181
▁shared	-6182
▁doubt	-6183
.)	-6184
▁sudden	-6185
▁attended	-6186
▁training	-6187
াবদ্ধ	-6188
▁Kapoor	-6189
isf	-6190
▁civil	-6191
▁আরব	-6192
ভুত	-6193
▁জনসং	-6194
সভা	-6195
ীব্র	-6196
▁Come	-6197
▁ইহার	-6198
ুকে	-6199
▁নব	-6200
ুনা	-6201
▁Congrat	-6202
▁reports	-6203
▁ঘণ	-6204
plement	-6205
▁impact	-6206
▁এতো	-6207
▁Hasina	-6208
▁আগ্রহী	-6209
▁মেল	-6210
lection	-6211
aching	-6212
▁চিঠি	-6213
খ্যান	-6214
▁সাফল্য	-6215
▁platform	-6216
action	-6217
▁achieve	-6218
▁ক্যার	-6219
▁ইউরোপীয়	-6220
bru	-6221
ংসা	-6222
▁colle	-6223
▁obs	-6224
▁lose	-6225
onavirus	-6226
ply	-6227
▁বিত	-6228
▁etc	-6229
▁ক্যান্স	-6230
ত্রে	-6231
▁কাগ	-6232
▁Chair	-6233
▁মার্চ	-6234
িও	-6235
▁ধ্বংস	-6236
▁কারন	-6237
▁বাবার	-6238
▁Per	-6239
▁aud	-6240
▁কথাই	-6241
▁করেননি	-6242
▁turned	-6243
পথ	-6244
astic	-6245
'।	-6246
▁কিছুক্ষণ	-6247
▁আপডেট	-6248
▁জগ	-6249
hood	-6250
▁অসং	-6251
▁wel	-6252
bruary	-6253
▁কখনোই	-6254
▁offer	-6255
▁CO	-6256
▁attempt	-6257
▁ভালোবাসি	-6258
▁আচরণ	-6259
gg	-6260
▁progress	-6261
▁বয়সী	-6262
ushed	-6263
▁জনের	-6264
▁সেখান	-6265
▁শা	-6266
▁বাংলা	-6267
▁Look	-6268
▁parties	-6269
▁আজকের	-6270
▁আশ্চর্য	-6271
gu	-6272
ায়ার	-6273
hu	-6274
স্থাপন	-6275
▁উন্ম	-6276
▁নির্ম	-6277
phone	-6278
▁Three	-6279
vember	-6280
▁পারেনি	-6281
▁college	-6282
▁truly	-6283
ager	-6284
িফ	-6285
for	-6286
▁১৩	-6287
▁experi	-6288
▁একক	-6289
▁তাড়াত	-6290
▁তীব্র	-6291
▁luck	-6292
issioner	-6293
▁সংস্থার	-6294
▁উঠতে	-6295
▁দ্বীপ	-6296
inated	-6297
▁included	-6298
▁কখনই	-6299
▁swe	-6300
▁defe	-6301
▁tax	-6302
30	-6303
▁ওঁ	-6304
▁সোম	-6305
▁manufact	-6306
নাক্ত	-6307
anj	-6308
▁ফাঁ	-6309
▁voice	-6310
▁evening	-6311
▁kept	-6312
াতার	-6313
▁comments	-6314
▁Muslims	-6315
▁contrib	-6316
▁তাম	-6317
মিটার	-6318
▁শির	-6319
▁রাখবেন	-6320
▁এইচ	-6321
▁Always	-6322
▁November	-6323
rap	-6324
▁nature	-6325
▁Ask	-6326
ems	-6327
▁নহে	-6328
▁policy	-6329
▁দুর্ব	-6330
▁Him	-6331
ively	-6332
uddin	-6333
▁purpose	-6334
▁আনা	-6335
গা	-6336
▁১৪	-6337
ructure	-6338
▁officer	-6339
▁prim	-6340
▁সহজে	-6341
--	-6342
▁Rs	-6343
▁বলেছি	-6344
▁হু	-6345
▁লীগের	-6346
▁Shri	-6347
▁আমেরিকার	-6348
▁আবারও	-6349
ডা	-6350
iber	-6351
play	-6352
▁rule	-6353
▁বিচারপতি	-6354
▁পরিমাণে	-6355
▁ক্লাব	-6356
▁পরিস	-6357
▁কর্মসূ	-6358
iab	-6359
orry	-6360
▁হোটেল	-6361
ার্চ	-6362
▁eight	-6363
ুল্লাহ	-6364
েক্স	-6365
▁pun	-6366
▁store	-6367
▁পারবো	-6368
▁recent	-6369
▁related	-6370
▁মজ	-6371
▁চাহি	-6372
▁মঙ্গল	-6373
hury	-6374
itam	-6375
▁রাজা	-6376
▁সংস্কৃতি	-6377
▁মসজি	-6378
▁বাহিনী	-6379
▁virus	-6380
▁এনে	-6381
▁Ac	-6382
levision	-6383
িরে	-6384
▁উঠেছে	-6385
▁গর্ব	-6386
▁মনোন	-6387
▁পরিশ্রম	-6388
▁ডিভাইস	-6389
▁choose	-6390
▁August	-6391
annel	-6392
▁পড়া	-6393
▁প্রায়ই	-6394
▁মজার	-6395
▁নদী	-6396
▁From	-6397
▁আবহা	-6398
▁poet	-6399
▁নিষিদ্ধ	-6400
▁rev	-6401
▁কৃষি	-6402
মূলক	-6403
▁লিখেছেন	-6404
টামিন	-6405
orrow	-6406
▁নেতৃত্ব	-6407
▁স্মরণ	-6408
▁content	-6409
▁সড়ক	-6410
▁সাহিত	-6411
▁speed	-6412
gen	-6413
▁লিখতে	-6414
িক্যাল	-6415
▁ডিগ্রি	-6416
▁sea	-6417
▁helps	-6418
▁সঙ্গীত	-6419
টর	-6420
▁অনুভূতি	-6421
▁সেট	-6422
▁নিয়োগ	-6423
▁Saudi	-6424
▁মনোযোগ	-6425
ুষ্ঠ	-6426
▁অর্থা	-6427
▁ভেঙে	-6428
▁দক্ষতা	-6429
▁শতাব্দ	-6430
ভাগ্য	-6431
▁সংসদ	-6432
য়ান	-6433
▁হয়েছি	-6434
▁named	-6435
ষ্টির	-6436
্টে	-6437
▁নষ্ট	-6438
▁image	-6439
▁অধীনে	-6440
▁সমন্ব	-6441
▁camera	-6442
▁spirit	-6443
arma	-6444
▁reve	-6445
▁culture	-6446
শী	-6447
▁পড়ার	-6448
▁ফু	-6449
▁পিতা	-6450
ires	-6451
▁ম্যানে	-6452
▁February	-6453
▁196	-6454
▁Justice	-6455
▁চতু	-6456
▁pack	-6457
▁দেশটির	-6458
▁families	-6459
▁Bus	-6460
▁safety	-6461
▁সদর	-6462
িনায়ক	-6463
▁হবার	-6464
্রিস্ট	-6465
▁ple	-6466
▁জারি	-6467
▁সিল	-6468
▁destro	-6469
▁tool	-6470
▁সৌদি	-6471
▁বাসায়	-6472
যুদ্ধ	-6473
▁careful	-6474
▁size	-6475
▁হাসি	-6476
Why	-6477
মাস	-6478
ুনি	-6479
চাল	-6480
▁কমিটি	-6481
োবর	-6482
▁শুক্র	-6483
ili	-6484
▁আপাত	-6485
sembly	-6486
▁term	-6487
▁যাদের	-6488
▁ইত	-6489
▁সংক	-6490
earch	-6491
▁ব্যস্ত	-6492
ুখি	-6493
দেহ	-6494
▁বাধা	-6495
▁বিরাট	-6496
▁guest	-6497
েশনের	-6498
▁এটির	-6499
▁Techn	-6500
hel	-6501
▁prevent	-6502
▁purch	-6503
▁হস্ত	-6504
ips	-6505
বছ	-6506
▁বলেই	-6507
ওয়ায়	-6508
▁বৈঠকে	-6509
▁ক্লাস	-6510
▁meaning	-6511
্ঠ	-6512
ফোর	-6513
▁উঠল	-6514
▁খাব	-6515
eder	-6516
▁mix	-6517
ভেল	-6518
▁ব্যাং	-6519
▁আল্লাহ্	-6520
vere	-6521
্রুতি	-6522
isions	-6523
বিত্র	-6524
▁একমত	-6525
▁events	-6526
▁Hum	-6527
▁তাকিয়ে	-6528
▁বিষয়টা	-6529
ex	-6530
▁এগুলি	-6531
▁যেহেতু	-6532
▁review	-6533
্বল	-6534
▁prime	-6535
▁exerc	-6536
▁excell	-6537
isation	-6538
▁issued	-6539
▁মুখোম	-6540
উন্ড	-6541
▁ইংরেজ	-6542
itc	-6543
aul	-6544
▁প্রতিবাদ	-6545
▁বাজারে	-6546
▁উপন	-6547
▁Pre	-6548
োক্ত	-6549
▁১৭	-6550
▁prices	-6551
▁Love	-6552
▁অতিথি	-6553
▁জনগণের	-6554
▁আসেন	-6555
▁Har	-6556
টিস	-6557
্দা	-6558
uries	-6559
▁citizens	-6560
▁Sab	-6561
▁Only	-6562
তিহ	-6563
▁physical	-6564
▁Its	-6565
All	-6566
ফিক	-6567
ij	-6568
▁secret	-6569
▁evidence	-6570
▁পরেই	-6571
edd	-6572
▁economy	-6573
▁ভিটামিন	-6574
▁ফর	-6575
▁poor	-6576
enty	-6577
▁fre	-6578
▁pregn	-6579
person	-6580
▁leav	-6581
aries	-6582
▁senior	-6583
▁House	-6584
▁রাজি	-6585
োনাল্ড	-6586
standing	-6587
কারীর	-6588
▁screen	-6589
▁রেজ	-6590
জন্ম	-6591
▁পেয়েছেন	-6592
▁Ge	-6593
▁fem	-6594
দর্শ	-6595
▁সর্বশেষ	-6596
ৃদ্ধ	-6597
.""	-6598
ring	-6599
▁চরিত্র	-6600
▁ভর	-6601
▁কবিতা	-6602
▁Const	-6603
time	-6604
▁কথায়	-6605
▁চাম	-6606
ঙ্খ	-6607
idge	-6608
▁mis	-6609
▁addition	-6610
▁কাশ্ম	-6611
▁বাস্তবে	-6612
▁challeng	-6613
কিন্ত	-6614
োতে	-6615
বিক	-6616
▁See	-6617
▁সঞ্চ	-6618
▁দিলাম	-6619
▁মুখোমুখি	-6620
তিহাস	-6621
▁নিষে	-6622
estern	-6623
odies	-6624
▁receive	-6625
ার্সি	-6626
▁sector	-6627
▁অসংখ্য	-6628
▁Mir	-6629
▁অদ্ভুত	-6630
▁পাহ	-6631
▁শর্	-6632
vious	-6633
্যাত	-6634
▁hasn	-6635
▁south	-6636
▁trade	-6637
▁হামলার	-6638
▁পৃথক	-6639
▁স্মৃতি	-6640
▁names	-6641
▁যন্ত্র	-6642
▁ক্যামেরা	-6643
▁ঘুরে	-6644
▁District	-6645
▁cop	-6646
▁লাশ	-6647
▁সপ্তাহের	-6648
▁Since	-6649
▁ten	-6650
শার	-6651
▁Central	-6652
use	-6653
িপ্ত	-6654
▁60	-6655
▁mass	-6656
▁liter	-6657
▁সিনেম	-6658
▁তাছাড়া	-6659
▁ang	-6660
▁prepared	-6661
▁অর্ধ	-6662
7.	-6663
বিজ্ঞ	-6664
▁এড়িয়ে	-6665
▁victim	-6666
▁surv	-6667
▁বী	-6668
▁histor	-6669
5.	-6670
ott	-6671
▁About	-6672
▁গ্রন্	-6673
▁সাম্প্র	-6674
formation	-6675
▁সন্ধান	-6676
▁হৃদয়	-6677
▁বিশ্লে	-6678
▁park	-6679
▁Cal	-6680
ক্ষার	-6681
▁বিরোধী	-6682
▁এপ্রিল	-6683
mpt	-6684
▁learning	-6685
▁অধি	-6686
▁মনের	-6687
▁সেখানেই	-6688
▁scared	-6689
▁degree	-6690
▁satisf	-6691
▁ইতিবাচক	-6692
্ষিক	-6693
right	-6694
▁লাগল	-6695
olkata	-6696
▁বিশ্বে	-6697
hib	-6698
▁Russian	-6699
▁command	-6700
▁জানাতে	-6701
▁Bible	-6702
▁north	-6703
▁ফাইন	-6704
▁পৃথিবীতে	-6705
itely	-6706
1.	-6707
▁fig	-6708
▁basis	-6709
ঘ্র	-6710
▁writer	-6711
▁মুসলমান	-6712
▁প্রার্থী	-6713
▁IP	-6714
▁১৬	-6715
▁মিউ	-6716
ঘর	-6717
▁Sri	-6718
▁ওখানে	-6719
িট	-6720
ক্রমে	-6721
▁tit	-6722
▁পঞ্চ	-6723
▁ইউনিয়ন	-6724
থার	-6725
racy	-6726
BI	-6727
▁দিল্লি	-6728
▁wick	-6729
▁harm	-6730
এটি	-6731
▁Apple	-6732
▁হাউ	-6733
বাদী	-6734
▁অনুপ্র	-6735
ological	-6736
▁bur	-6737
আমাদের	-6738
▁gets	-6739
▁option	-6740
▁Son	-6741
▁model	-6742
know	-6743
▁বিদ্যুৎ	-6744
▁joined	-6745
▁ইউটিউ	-6746
গতি	-6747
টিটি	-6748
▁schools	-6749
▁paid	-6750
▁মুদ্র	-6751
০০০	-6752
oul	-6753
▁express	-6754
haps	-6755
▁ভাবতে	-6756
▁খ্রিস্ট	-6757
irm	-6758
:2	-6759
▁stories	-6760
unities	-6761
▁stage	-6762
aker	-6763
▁points	-6764
▁সাক্ষা	-6765
▁ইন্ডিয়া	-6766
দর্শন	-6767
▁পোশ	-6768
▁প্যার	-6769
▁অভ্যন্ত	-6770
জনা	-6771
▁ময়	-6772
uff	-6773
▁উৎসাহ	-6774
ট্ট	-6775
▁Develop	-6776
icide	-6777
টওয়্যার	-6778
▁22	-6779
▁পিছনে	-6780
▁pet	-6781
▁Canada	-6782
rief	-6783
▁সম্ভাব্য	-6784
▁Fil	-6785
▁ord	-6786
▁Des	-6787
ডিং	-6788
▁fair	-6789
za	-6790
▁enter	-6791
▁পরিবহ	-6792
▁simply	-6793
▁অভিযান	-6794
চিব	-6795
▁highest	-6796
▁প্রণ	-6797
▁Chowd	-6798
স্কৃতিক	-6799
ডেম	-6800
▁কাউন্স	-6801
▁যাচ্ছেন	-6802
chan	-6803
জুড়ে	-6804
▁lat	-6805
▁Sup	-6806
▁গর্ভ	-6807
▁Organ	-6808
▁YouT	-6809
▁ব্যাক	-6810
▁Kolkata	-6811
▁স্যার	-6812
ighb	-6813
▁fish	-6814
▁সভায়	-6815
▁ইভ	-6816
▁iP	-6817
▁আবু	-6818
▁ডান	-6819
উল	-6820
▁Hasan	-6821
▁cy	-6822
3.	-6823
▁informed	-6824
▁মিশিয়ে	-6825
▁কাপুর	-6826
▁একসাথে	-6827
▁deli	-6828
ards	-6829
▁vol	-6830
▁2016	-6831
▁বাতিল	-6832
sc	-6833
erve	-6834
▁opinion	-6835
মতো	-6836
▁Art	-6837
▁বেছে	-6838
▁কর্তৃক	-6839
র্ণ	-6840
▁gold	-6841
াস্থ্যের	-6842
▁কামনা	-6843
▁shot	-6844
▁green	-6845
▁central	-6846
▁সন্তু	-6847
▁শিকার	-6848
▁প্রশংসা	-6849
▁কেটে	-6850
এটা	-6851
▁পদার্থ	-6852
▁advice	-6853
▁Work	-6854
▁rail	-6855
▁Reg	-6856
engers	-6857
▁কমিশন	-6858
▁doctors	-6859
গো	-6860
▁মহিলাদের	-6861
▁ম্যাচে	-6862
মধ্যেই	-6863
▁দায়ী	-6864
▁arrest	-6865
▁Army	-6866
▁ভবিষ্যতে	-6867
রূপে	-6868
▁resc	-6869
▁অর্থাৎ	-6870
ককে	-6871
▁movement	-6872
য়েল	-6873
▁appre	-6874
▁চ্যাম্প	-6875
▁rap	-6876
য়াজ	-6877
▁breat	-6878
▁দিচ্ছে	-6879
▁seek	-6880
set	-6881
▁উত্স	-6882
িনিয়	-6883
▁ফিল্ম	-6884
▁fix	-6885
পূর্ব	-6886
▁বিখ্যাত	-6887
▁ভাইরাস	-6888
▁sides	-6889
▁ফর্ম	-6890
ishing	-6891
িয়েছে	-6892
▁Co	-6893
সভ	-6894
uel	-6895
▁পেশাদার	-6896
টারি	-6897
▁mount	-6898
কুম	-6899
▁কয়েকজন	-6900
বহার	-6901
▁block	-6902
▁hundred	-6903
িলো	-6904
▁Car	-6905
otion	-6906
▁conv	-6907
▁YouTube	-6908
aman	-6909
▁অক্টোবর	-6910
িংস	-6911
▁player	-6912
▁বয়সে	-6913
ibr	-6914
▁নক	-6915
▁(19	-6916
▁টাইম	-6917
▁growth	-6918
put	-6919
▁inn	-6920
aging	-6921
▁সংগঠন	-6922
▁List	-6923
▁মের	-6924
▁During	-6925
▁মরি	-6926
▁Hindu	-6927
▁concern	-6928
▁hous	-6929
itation	-6930
▁Get	-6931
▁রাম	-6932
্যালো	-6933
▁দোকান	-6934
▁accom	-6935
▁proud	-6936
▁সাড়া	-6937
ially	-6938
▁সংখ্য	-6939
▁পবিত্র	-6940
সু	-6941
▁ফেরত	-6942
▁Nothing	-6943
কারীরা	-6944
▁নিয়েই	-6945
▁ensure	-6946
▁twe	-6947
▁বিভা	-6948
▁hotel	-6949
▁জানো	-6950
lands	-6951
▁অক্স	-6952
কাম	-6953
▁দান	-6954
পাশে	-6955
ায়িত	-6956
▁নীল	-6957
▁path	-6958
▁বিস্ফোর	-6959
ishes	-6960
▁Adv	-6961
▁joint	-6962
▁এটিকে	-6963
ৃণ	-6964
▁কাজটা	-6965
▁rad	-6966
▁সুপ	-6967
▁পেঁ	-6968
▁ভালবাসি	-6969
▁Col	-6970
▁Met	-6971
▁মানের	-6972
▁কিছুর	-6973
ead	-6974
▁পেলাম	-6975
▁favor	-6976
ডিয়ান	-6977
ামার	-6978
▁ঘরের	-6979
▁collect	-6980
▁পারলাম	-6981
▁Offic	-6982
▁আউট	-6983
▁বিষয়ক	-6984
▁options	-6985
শোর	-6986
▁Us	-6987
▁দিচ্ছি	-6988
4.	-6989
▁indeed	-6990
ড়ো	-6991
িনিয়ার	-6992
ধীন	-6993
িম্প	-6994
▁growing	-6995
onna	-6996
omb	-6997
▁ahead	-6998
▁explain	-6999
▁ক্ষতিগ্র	-7000
▁Good	-7001
▁ইন্দ	-7002
▁ফেসবু	-7003
▁তালিকায়	-7004
▁শিখতে	-7005
▁চিকিত	-7006
▁running	-7007
▁সেনাবাহ	-7008
cip	-7009
essor	-7010
▁এজ	-7011
▁ম্যান	-7012
▁Muh	-7013
istic	-7014
▁এমনি	-7015
▁সবুজ	-7016
ান্ডা	-7017
agar	-7018
▁sky	-7019
▁trou	-7020
▁Mon	-7021
▁পাচ্ছি	-7022
▁উত্পাদন	-7023
▁cities	-7024
▁touch	-7025
▁gas	-7026
▁jail	-7027
▁destroy	-7028
▁resident	-7029
েরই	-7030
ীতির	-7031
▁Donald	-7032
▁দুর্বল	-7033
▁দুধ	-7034
▁এড	-7035
zz	-7036
▁Aff	-7037
▁videos	-7038
▁বাসিন্দ	-7039
ho	-7040
▁carry	-7041
▁salt	-7042
▁glad	-7043
▁আহ্বান	-7044
কিন্তু	-7045
▁depends	-7046
▁jour	-7047
▁Republic	-7048
ER	-7049
▁তাতেই	-7050
ounded	-7051
▁neighb	-7052
▁চাঁ	-7053
▁disp	-7054
utive	-7055
▁)	-7056
▁ইনি	-7057
▁যাও	-7058
▁রেখ	-7059
▁remains	-7060
everal	-7061
▁squ	-7062
ients	-7063
▁বৈঠক	-7064
▁সত্ত	-7065
▁totally	-7066
দল	-7067
known	-7068
▁বন্ধুদের	-7069
▁groups	-7070
আপ	-7071
▁ইনস্টল	-7072
▁মামলার	-7073
▁becomes	-7074
▁প্ল্যাট	-7075
▁avoid	-7076
▁ডিসেম্বর	-7077
▁Sm	-7078
ension	-7079
▁যিহোবার	-7080
▁শুক্রবার	-7081
▁force	-7082
▁কারণেই	-7083
▁জনগণ	-7084
হারা	-7085
▁মাদ	-7086
▁ধর্মীয়	-7087
▁অবস্থার	-7088
estival	-7089
AT	-7090
▁By	-7091
িত্বে	-7092
▁Supreme	-7093
▁অন্ধকার	-7094
▁Islamic	-7095
▁sort	-7096
▁formed	-7097
সেন্স	-7098
▁শীঘ্র	-7099
amb	-7100
▁জ্বাল	-7101
▁comfort	-7102
▁stri	-7103
ুয়াল	-7104
▁স্ক্র	-7105
▁imag	-7106
▁silent	-7107
0.	-7108
্ৰ	-7109
ুত্ব	-7110
্ক	-7111
▁ভালবাসা	-7112
▁প্রভাবিত	-7113
▁নিত	-7114
▁দিয়েছি	-7115
খানা	-7116
▁দলে	-7117
▁সকাল	-7118
▁reach	-7119
▁multip	-7120
▁forces	-7121
oman	-7122
▁অ্যান্টি	-7123
▁Friday	-7124
reet	-7125
▁সমৃদ্ধ	-7126
▁lots	-7127
face	-7128
pir	-7129
▁প্রদেশ	-7130
▁crime	-7131
▁emb	-7132
▁plans	-7133
▁যিশ	-7134
▁আনতে	-7135
▁লোকেরা	-7136
▁ভবন	-7137
▁sitting	-7138
▁সবগুলো	-7139
▁শোক	-7140
▁ভাগ্য	-7141
▁পোশাক	-7142
▁পর্যাপ্ত	-7143
▁২৫	-7144
▁এদিকে	-7145
rul	-7146
OS	-7147
▁পার্টি	-7148
শই	-7149
▁ঘটনাটি	-7150
As	-7151
▁ok	-7152
▁wall	-7153
বনে	-7154
▁সম্পদ	-7155
▁Ob	-7156
শনের	-7157
▁Several	-7158
▁maintain	-7159
▁দিব	-7160
▁exec	-7161
▁পেছনে	-7162
▁efforts	-7163
াদী	-7164
▁itself	-7165
▁charge	-7166
▁তুর	-7167
rew	-7168
▁terms	-7169
ওয়্যার	-7170
▁ভেতরে	-7171
▁চাহিদা	-7172
▁sympt	-7173
ulf	-7174
vert	-7175
▁bow	-7176
▁paper	-7177
▁Off	-7178
▁Sund	-7179
▁নগ	-7180
▁instru	-7181
▁led	-7182
▁alle	-7183
তিহাসিক	-7184
▁famous	-7185
▁temple	-7186
enge	-7187
▁active	-7188
ech	-7189
▁unique	-7190
rol	-7191
বাসী	-7192
▁sources	-7193
▁অঞ্চলের	-7194
▁egg	-7195
ামো	-7196
▁ওপ	-7197
▁star	-7198
▁পালিয়ে	-7199
▁choice	-7200
▁complex	-7201
sy	-7202
▁veget	-7203
No	-7204
▁তোলা	-7205
going	-7206
▁caused	-7207
▁সীমাবদ্ধ	-7208
▁ষ	-7209
ামে	-7210
▁পুনর	-7211
▁চাও	-7212
ealand	-7213
▁bodies	-7214
▁শাস্তি	-7215
▁warm	-7216
▁দা	-7217
▁সকলে	-7218
▁worried	-7219
▁সিটি	-7220
টেন	-7221
▁animals	-7222
▁খেয়াল	-7223
▁ছাড়াই	-7224
▁benefit	-7225
verage	-7226
▁Board	-7227
হোক	-7228
wered	-7229
▁পিছ	-7230
▁নভেম্বর	-7231
▁Up	-7232
▁Tell	-7233
▁smile	-7234
▁journey	-7235
▁cut	-7236
▁ত্রু	-7237
▁বুঝে	-7238
▁চিকিত্স	-7239
atever	-7240
▁সের	-7241
▁angry	-7242
চা	-7243
▁আইনজীব	-7244
eter	-7245
▁Children	-7246
পোর্ট	-7247
▁কর্মী	-7248
oly	-7249
▁৫০	-7250
▁গ্যাস	-7251
▁quiet	-7252
▁guy	-7253
▁হালকা	-7254
▁lif	-7255
riculture	-7256
▁Which	-7257
ন্ত্রণে	-7258
▁extra	-7259
▁আগস্ট	-7260
iable	-7261
▁teachers	-7262
▁rich	-7263
▁projects	-7264
▁Zealand	-7265
▁click	-7266
▁Apart	-7267
▁gonna	-7268
▁cool	-7269
▁Super	-7270
▁hit	-7271
▁bath	-7272
র্ন	-7273
OT	-7274
▁দাব	-7275
razil	-7276
▁qual	-7277
▁channel	-7278
iqu	-7279
▁Time	-7280
ivity	-7281
▁বিজ্ঞাপন	-7282
াপ্র	-7283
▁ডোনাল্ড	-7284
▁আনুষ্ঠ	-7285
▁Sub	-7286
▁194	-7287
aign	-7288
vi	-7289
aven	-7290
rences	-7291
▁সাজ	-7292
▁Amit	-7293
▁lack	-7294
চাপ	-7295
▁রাখেন	-7296
▁যাত্রা	-7297
▁cooper	-7298
▁প্রমুখ	-7299
▁unit	-7300
▁চতুর্থ	-7301
শিয়ান	-7302
▁stated	-7303
▁দুর্ঘটনা	-7304
▁শ্রদ্ধা	-7305
▁অনেকটা	-7306
▁milk	-7307
▁শ্বাস	-7308
▁heavy	-7309
▁patients	-7310
▁লোকে	-7311
▁violence	-7312
▁Answ	-7313
▁গ্রাহক	-7314
▁চিহ্নিত	-7315
ান্ত্রিক	-7316
▁উপহার	-7317
▁বিয়ের	-7318
▁1,	-7319
▁অপ্র	-7320
ামের	-7321
▁Sharma	-7322
▁circ	-7323
▁Law	-7324
▁আন্দোলন	-7325
▁রাশিয়া	-7326
ধানে	-7327
িতাম	-7328
▁গান্ধী	-7329
▁অশ	-7330
▁pie	-7331
▁repe	-7332
▁অ্যাক্স	-7333
▁সাধ	-7334
▁সোমবার	-7335
IC	-7336
iled	-7337
নিষ্ঠ	-7338
▁sugar	-7339
▁রোগের	-7340
▁Bet	-7341
▁লুক	-7342
▁মাহম	-7343
▁influ	-7344
▁learned	-7345
ডিয়ায়	-7346
▁এলাকার	-7347
ঙ্গা	-7348
▁shock	-7349
▁digital	-7350
▁ক্রী	-7351
▁board	-7352
amil	-7353
ুর্ত	-7354
ধর	-7355
▁Foreign	-7356
▁Fl	-7357
eared	-7358
▁এক্ষ	-7359
▁মামলায়	-7360
▁আপাতত	-7361
বঙ্গ	-7362
▁lakh	-7363
▁বিপক্ষে	-7364
▁variety	-7365
▁অনুমোদন	-7366
▁থাকছে	-7367
▁focus	-7368
▁অ্যাম	-7369
াউন্ড	-7370
দ্দিন	-7371
প্লে	-7372
গু	-7373
শিল্প	-7374
খ্যার	-7375
▁sens	-7376
▁প্রিন	-7377
▁কিছুতেই	-7378
9.	-7379
▁staff	-7380
▁majority	-7381
ণ্ঠ	-7382
▁রাগ	-7383
cies	-7384
road	-7385
▁বলেও	-7386
▁চুক্ত	-7387
▁মাধ্যম	-7388
▁সম্মেলনে	-7389
xic	-7390
▁ব্রাজ	-7391
মানের	-7392
▁হাসিনা	-7393
▁চ্যানেল	-7394
▁বিএনপির	-7395
▁hop	-7396
▁২৪	-7397
▁হায়	-7398
au	-7399
▁ঘটছে	-7400
োয়	-7401
▁Associ	-7402
▁hearing	-7403
▁অনুবাদ	-7404
▁tar	-7405
ators	-7406
▁Mark	-7407
war	-7408
হল	-7409
▁Rahul	-7410
▁দেখায়	-7411
▁সেনা	-7412
key	-7413
▁রাহুল	-7414
isis	-7415
ভুক্ত	-7416
wide	-7417
▁gra	-7418
▁Pal	-7419
তিহ্য	-7420
▁transl	-7421
ey	-7422
িস্তান	-7423
▁ড্রাইভ	-7424
▁অফিসার	-7425
▁আশঙ্কা	-7426
▁শ্রেষ্ঠ	-7427
▁১৯৮	-7428
▁hor	-7429
▁ঘটতে	-7430
▁farmers	-7431
If	-7432
▁হচ্ছিল	-7433
▁মেড	-7434
▁club	-7435
▁লবণ	-7436
bel	-7437
▁ন্যাশনাল	-7438
▁cred	-7439
▁alleg	-7440
▁rout	-7441
▁patient	-7442
▁thoughts	-7443
▁খোঁজ	-7444
inet	-7445
▁weather	-7446
গারে	-7447
বিল	-7448
▁Avoid	-7449
▁Bi	-7450
▁রিস	-7451
▁hol	-7452
):	-7453
arily	-7454
▁বোঝা	-7455
চ্ছিন্ন	-7456
urch	-7457
▁gar	-7458
cient	-7459
▁god	-7460
▁Em	-7461
প্ল	-7462
▁Trans	-7463
▁grand	-7464
▁ল্যা	-7465
▁vote	-7466
ছিস	-7467
জিক	-7468
▁suicide	-7469
▁রাই	-7470
▁সেকেন্ড	-7471
সম্প	-7472
▁তথা	-7473
▁rushed	-7474
▁Each	-7475
▁বিরক্ত	-7476
▁MP	-7477
add	-7478
▁clot	-7479
▁আসামি	-7480
মূল	-7481
▁Deputy	-7482
▁files	-7483
agram	-7484
▁বিবরণ	-7485
▁আফ্রিকা	-7486
▁till	-7487
▁ভিতরে	-7488
▁অন্তর্	-7489
▁বিজেপির	-7490
টায়	-7491
▁Hope	-7492
▁নির্মিত	-7493
▁Brazil	-7494
▁26	-7495
▁flo	-7496
ধ্যায়	-7497
▁চোখের	-7498
reg	-7499
▁নামের	-7500
িত্রে	-7501
▁heat	-7502
▁supply	-7503
▁নান	-7504
্যান্ট	-7505
ona	-7506
’।	-7507
▁জলবায়	-7508
▁intell	-7509
▁reduce	-7510
ধারিত	-7511
টস	-7512
▁আহম	-7513
▁advant	-7514
▁সভাপত	-7515
▁স্টে	-7516
▁3.	-7517
▁Chairman	-7518
▁ফিরিয়ে	-7519
হর	-7520
▁বহন	-7521
▁রাজ্যে	-7522
swered	-7523
▁produced	-7524
ফরম	-7525
▁ইউনিভ	-7526
▁arrived	-7527
while	-7528
▁Play	-7529
▁আন্তরিক	-7530
▁সুপ্রিম	-7531
ড়ার	-7532
▁equal	-7533
▁arr	-7534
▁পদে	-7535
▁এখনই	-7536
▁lower	-7537
▁গেলো	-7538
সাম	-7539
ত্যার	-7540
ades	-7541
▁বদল	-7542
▁আজকে	-7543
▁kid	-7544
cious	-7545
▁IS	-7546
▁Sun	-7547
▁benefits	-7548
▁drive	-7549
▁মাহমুদ	-7550
▁bless	-7551
▁Father	-7552
▁begins	-7553
▁Ant	-7554
▁চেক	-7555
▁Business	-7556
▁শ্রীল	-7557
▁ut	-7558
▁অংশী	-7559
▁viral	-7560
ancy	-7561
▁পরিবহন	-7562
্বেও	-7563
▁দৃঢ়	-7564
▁Pun	-7565
ক্ষিপ্ত	-7566
ffects	-7567
▁অনুমান	-7568
co	-7569
Is	-7570
▁Prop	-7571
▁ছি	-7572
▁সেটাও	-7573
▁ছেলের	-7574
▁anywhere	-7575
▁আমরাও	-7576
▁বেসরকার	-7577
tery	-7578
▁বিতর্ক	-7579
▁nobody	-7580
িকে	-7581
▁টেলিভিশন	-7582
▁নির্বাহী	-7583
▁Affairs	-7584
▁lived	-7585
▁টাকার	-7586
sequently	-7587
ষা	-7588
▁মধ	-7589
▁nut	-7590
▁কেননা	-7591
▁damage	-7592
de	-7593
▁prior	-7594
▁গুজ	-7595
▁তুলতে	-7596
▁numbers	-7597
▁mistake	-7598
▁কাছাকা	-7599
▁বিশ্লেষণ	-7600
▁শীঘ্রই	-7601
▁টিম	-7602
hold	-7603
▁এটাও	-7604
োলার	-7605
▁describ	-7606
▁করত	-7607
▁বিবৃতিতে	-7608
জান	-7609
▁examples	-7610
▁ফাংশ	-7611
▁Abu	-7612
াল্লাহ	-7613
▁রাস্তায়	-7614
ধিক	-7615
বিশ্বাস	-7616
▁airport	-7617
▁১৯৭	-7618
▁plant	-7619
▁আবিষ্কার	-7620
জির	-7621
▁Does	-7622
পাত্র	-7623
▁কাছাকাছি	-7624
▁আও	-7625
oming	-7626
udd	-7627
lymp	-7628
▁songs	-7629
▁সেগুলি	-7630
▁সেদিন	-7631
▁affected	-7632
্রয়েড	-7633
▁bar	-7634
ষ্ক	-7635
▁জন্যও	-7636
▁II	-7637
▁gen	-7638
আল	-7639
▁আদর্শ	-7640
▁সদস্যদের	-7641
▁প্রতিবেদ	-7642
▁Korea	-7643
▁উদ্দিন	-7644
▁হুমকি	-7645
▁laws	-7646
▁যৌথ	-7647
ালেন	-7648
▁১০০	-7649
▁Muhammad	-7650
▁অর	-7651
▁আদৌ	-7652
▁এলো	-7653
▁Applic	-7654
▁contain	-7655
▁ভয়ে	-7656
▁বোর্ড	-7657
▁পারছেন	-7658
▁প্রত্যে	-7659
লম্ব	-7660
ফেস	-7661
▁pick	-7662
শাস	-7663
▁Kam	-7664
BC	-7665
▁শৈ	-7666
▁এটাকে	-7667
▁Science	-7668
▁introdu	-7669
▁Oh	-7670
▁border	-7671
▁আমারও	-7672
কাণ্ড	-7673
▁provides	-7674
ban	-7675
▁autom	-7676
▁Mond	-7677
▁ডিম	-7678
▁টুক	-7679
▁বিশেষত	-7680
▁পারেননি	-7681
▁ভোগ	-7682
▁এটিই	-7683
▁এটার	-7684
▁campaign	-7685
▁feet	-7686
▁includes	-7687
▁উজ্জ	-7688
টিটিউট	-7689
▁maybe	-7690
▁লোকের	-7691
গম	-7692
▁Sam	-7693
▁চেয়েও	-7694
▁Dis	-7695
▁diet	-7696
▁নিয়েছেন	-7697
▁Mo	-7698
▁Post	-7699
back	-7700
nam	-7701
▁অপরের	-7702
▁পের	-7703
▁ভাবনা	-7704
▁powerful	-7705
▁ঠান্ডা	-7706
কট্র	-7707
▁lock	-7708
▁ভবিষ্যৎ	-7709
▁reply	-7710
▁Security	-7711
▁esc	-7712
▁মারাত্মক	-7713
বোধ	-7714
ঞ্চল	-7715
ন্দ্ব	-7716
▁Chand	-7717
▁তিনজন	-7718
▁সংগীত	-7719
▁হতাশ	-7720
▁বিভাগে	-7721
▁80	-7722
esome	-7723
ল্পন	-7724
বাই	-7725
▁যুদ্ধের	-7726
▁গেছি	-7727
চক	-7728
▁বঙ্গ	-7729
▁অনুশীল	-7730
▁opposite	-7731
বয়	-7732
▁সফর	-7733
▁সান	-7734
▁যেভাবে	-7735
▁answered	-7736
▁Even	-7737
▁fat	-7738
▁চরম	-7739
▁levels	-7740
cher	-7741
▁হলাম	-7742
▁via	-7743
▁দুর	-7744
▁fault	-7745
▁commer	-7746
▁দেখছি	-7747
▁জলের	-7748
▁alleged	-7749
▁tweet	-7750
▁Ma	-7751
▁rise	-7752
▁convers	-7753
VID	-7754
▁Mahm	-7755
▁বাচ্চা	-7756
▁অলিম্প	-7757
▁রঙের	-7758
▁23	-7759
itude	-7760
ources	-7761
▁answers	-7762
▁লাইসেন্স	-7763
AS	-7764
bit	-7765
▁Dem	-7766
▁বলবেন	-7767
হয়	-7768
েন্টের	-7769
▁প্রশাসন	-7770
ship	-7771
sec	-7772
let	-7773
▁কমিউ	-7774
▁hour	-7775
▁Ash	-7776
▁সরিয়ে	-7777
▁মোটা	-7778
▁remained	-7779
▁অতএব	-7780
▁failed	-7781
▁রাসূল	-7782
▁মৌলিক	-7783
▁বলিউড	-7784
িনার	-7785
:3	-7786
▁যুক্তি	-7787
▁billion	-7788
▁customer	-7789
▁সন্	-7790
▁কিনতে	-7791
▁স্বয়	-7792
জেক্ট	-7793
▁তথ্যের	-7794
জেন	-7795
▁belong	-7796
ume	-7797
▁স্বাগত	-7798
lick	-7799
▁twice	-7800
▁aim	-7801
erved	-7802
▁নিউজিল	-7803
েসি	-7804
▁লিখিত	-7805
▁Rel	-7806
▁Word	-7807
▁directed	-7808
▁accepted	-7809
▁chem	-7810
▁birthday	-7811
▁উপরের	-7812
▁বিস্তৃত	-7813
▁box	-7814
ampions	-7815
বছর	-7816
▁গাড়ির	-7817
▁machine	-7818
▁Far	-7819
▁Mean	-7820
▁তোমায়	-7821
▁sports	-7822
▁পাহাড়	-7823
▁Olymp	-7824
▁মোটেই	-7825
eah	-7826
▁অবিশ্বাস	-7827
▁ভয়া	-7828
▁fully	-7829
hone	-7830
▁symptoms	-7831
▁sell	-7832
▁মর্	-7833
চাই	-7834
▁directly	-7835
▁appl	-7836
ণী	-7837
▁বুঝি	-7838
ম্বা	-7839
▁connect	-7840
▁আবহাওয়া	-7841
▁বুধ	-7842
▁স্বাক্ষর	-7843
-2	-7844
▁strug	-7845
ffee	-7846
▁জানার	-7847
▁দখ	-7848
▁দেয়ার	-7849
▁moved	-7850
▁dry	-7851
iers	-7852
▁পেঁয়াজ	-7853
▁eye	-7854
গল	-7855
▁(1)	-7856
IS	-7857
▁battle	-7858
▁distrib	-7859
▁practice	-7860
▁bird	-7861
▁ভালোই	-7862
নির্	-7863
1,	-7864
▁ideas	-7865
▁resol	-7866
▁বাহিনীর	-7867
AN	-7868
jab	-7869
▁হাইক	-7870
▁কন্যা	-7871
▁cro	-7872
▁ফাই	-7873
▁শিগ	-7874
▁spokes	-7875
ৃঙ্খ	-7876
▁একথা	-7877
▁বন্ধুত্ব	-7878
▁শুক	-7879
▁female	-7880
▁জন্মদিন	-7881
▁Never	-7882
▁appreci	-7883
▁critic	-7884
পণ	-7885
▁cultural	-7886
ixt	-7887
cast	-7888
▁shows	-7889
▁মেশিন	-7890
▁মৌসুম	-7891
▁বিপ্ল	-7892
▁28	-7893
▁Div	-7894
▁strength	-7895
att	-7896
ps	-7897
vest	-7898
▁জমি	-7899
▁instit	-7900
▁2017	-7901
▁রহস্য	-7902
▁নারীদের	-7903
ria	-7904
▁pen	-7905
▁guess	-7906
▁পড়েন	-7907
ibly	-7908
▁laug	-7909
▁আচ্ছা	-7910
▁refer	-7911
▁গোষ্ঠ	-7912
ূত	-7913
▁nearly	-7914
▁তল	-7915
▁দুজনেই	-7916
ওয়ান	-7917
▁section	-7918
িমা	-7919
▁ge	-7920
▁Sir	-7921
ামান	-7922
▁Form	-7923
▁অ্যাস	-7924
▁Social	-7925
▁শিক্ষার	-7926
▁systems	-7927
▁গুঁ	-7928
▁উদ্বেগ	-7929
▁চরিত্রে	-7930
▁প্রাণী	-7931
▁পরবর্ত	-7932
টিও	-7933
▁property	-7934
vent	-7935
azila	-7936
▁গণতন্ত্র	-7937
▁display	-7938
▁crisis	-7939
▁ভয়াবহ	-7940
▁memory	-7941
imately	-7942
▁standing	-7943
▁Rem	-7944
▁worse	-7945
pen	-7946
গ্ধ	-7947
That	-7948
▁লেখার	-7949
▁মুখপাত্র	-7950
▁বিছ	-7951
গঞ্জ	-7952
▁সুপারিশ	-7953
▁separate	-7954
lear	-7955
্রান্ত	-7956
ipur	-7957
▁anyway	-7958
গতভাবে	-7959
▁প্রায়শই	-7960
ঙ্ঘ	-7961
based	-7962
রাও	-7963
▁Cricket	-7964
▁alive	-7965
▁সায়	-7966
▁ভাবছেন	-7967
টারের	-7968
সাধারণ	-7969
▁believed	-7970
টিই	-7971
▁offe	-7972
▁নারীর	-7973
▁followed	-7974
▁লিঙ্ক	-7975
▁brand	-7976
্ডার	-7977
▁লক্ষ্যে	-7978
▁দেখেন	-7979
▁সার্ব	-7980
▁এশিয়া	-7981
▁যী	-7982
▁কবি	-7983
▁স্নাতক	-7984
▁Rec	-7985
সান	-7986
▁liked	-7987
ুরুর	-7988
▁দেখলাম	-7989
▁জম	-7990
▁টেবিল	-7991
▁২০২০	-7992
▁movies	-7993
▁সংবিধান	-7994
▁complic	-7995
▁বার্ষিক	-7996
লিত	-7997
▁মোটর	-7998
▁ইলেকট্র	-7999
▁Black	-8000
▁প্রযোজ্য	-8001
▁স্থিত	-8002
▁বিভক্ত	-8003
▁ভগ	-8004
▁কিশোর	-8005
gency	-8006
▁শনি	-8007
▁তত্ত্ব	-8008
▁বেড়েছে	-8009
▁exercise	-8010
▁অবদান	-8011
োপা	-8012
▁বলো	-8013
▁contains	-8014
▁task	-8015
▁বিদ্যমান	-8016
▁উপায়ে	-8017
্ণ	-8018
▁হোম	-8019
▁multiple	-8020
োগ্র	-8021
ulated	-8022
▁Book	-8023
illions	-8024
কিট	-8025
স্পতি	-8026
▁costs	-8027
▁শিগগির	-8028
udget	-8029
▁মাংস	-8030
▁তখনই	-8031
▁প্রদর্শ	-8032
▁signed	-8033
ician	-8034
ছিলো	-8035
▁newsp	-8036
▁winter	-8037
াহী	-8038
▁whom	-8039
▁অধিনায়ক	-8040
▁matches	-8041
ফের	-8042
▁Tal	-8043
▁location	-8044
▁remo	-8045
গুলোকে	-8046
▁Year	-8047
▁ভারী	-8048
▁Film	-8049
▁Loc	-8050
▁blue	-8051
▁কেউই	-8052
iction	-8053
▁devices	-8054
▁পর্যবে	-8055
▁নিঃস	-8056
▁চাইলে	-8057
usion	-8058
শিক্ষ	-8059
ography	-8060
▁স্টেশন	-8061
▁busy	-8062
▁যিহোবা	-8063
▁নিযুক্ত	-8064
িতায়	-8065
▁অপরি	-8066
▁করতাম	-8067
.'	-8068
রাসি	-8069
ডেন	-8070
▁সাদ	-8071
▁জলবায়ু	-8072
▁গ্রীষ্	-8073
▁ভাইরাল	-8074
▁পড়ছে	-8075
▁ব্রাউ	-8076
▁মুম্বই	-8077
eth	-8078
▁regular	-8079
eum	-8080
▁গতকাল	-8081
rible	-8082
▁কথাও	-8083
▁90	-8084
▁এসময়	-8085
▁vehicle	-8086
▁Cr	-8087
▁Monday	-8088
▁শোন	-8089
▁পাঁচটি	-8090
রীণ	-8091
গ্রী	-8092
িয়েত	-8093
▁থেমে	-8094
10	-8095
▁বইটি	-8096
▁Sad	-8097
▁তারপরও	-8098
▁income	-8099
সারণ	-8100
▁Punjab	-8101
▁লোকজন	-8102
▁suc	-8103
াবলী	-8104
▁ভালই	-8105
কালের	-8106
ties	-8107
rs	-8108
mail	-8109
▁কিছুদিন	-8110
▁কপি	-8111
▁draw	-8112
▁শত্র	-8113
▁prepar	-8114
▁youth	-8115
abor	-8116
▁মিনিটের	-8117
▁আরাম	-8118
▁দুন	-8119
▁কিলো	-8120
▁অংশীদার	-8121
▁বাড়িয়ে	-8122
▁Cook	-8123
▁Port	-8124
▁মাত্রা	-8125
fficient	-8126
▁COVID	-8127
পক্ষের	-8128
▁dece	-8129
▁কাগজ	-8130
পিং	-8131
▁leading	-8132
▁প্রজা	-8133
▁সাবধান	-8134
▁solve	-8135
দৃ	-8136
uals	-8137
▁Nep	-8138
▁মঙ্গলবার	-8139
▁শুরুতে	-8140
ড্র	-8141
▁""""	-8142
▁effects	-8143
্কা	-8144
iger	-8145
▁categ	-8146
▁উদযাপন	-8147
▁posted	-8148
▁range	-8149
▁রাশিয়ার	-8150
How	-8151
asht	-8152
▁Prophet	-8153
rate	-8154
▁ইতিহাসে	-8155
oke	-8156
▁গ্রহ	-8157
▁images	-8158
▁আমাদেরকে	-8159
নাথ	-8160
itamin	-8161
▁climate	-8162
▁কাশ্মীর	-8163
দিক	-8164
▁dad	-8165
▁ধর্ষণ	-8166
▁রূপান্তর	-8167
▁Earth	-8168
▁loves	-8169
▁তদন্তের	-8170
ায়া	-8171
▁Def	-8172
▁useful	-8173
▁missing	-8174
▁ত্র	-8175
▁Fire	-8176
▁শিখে	-8177
▁foods	-8178
ously	-8179
▁Kingdom	-8180
▁শোনা	-8181
ভিত্ত	-8182
obs	-8183
▁window	-8184
▁gun	-8185
cement	-8186
▁সন্তুষ্ট	-8187
bed	-8188
▁succeed	-8189
vey	-8190
▁claimed	-8191
TM	-8192
▁easier	-8193
▁starts	-8194
▁army	-8195
▁সুখী	-8196
ullah	-8197
▁Arabia	-8198
▁middle	-8199
▁মস্তি	-8200
▁ফার্	-8201
▁track	-8202
▁চিকিৎসক	-8203
ground	-8204
নীতি	-8205
▁joy	-8206
▁সিক	-8207
▁forgot	-8208
▁কর্মীদের	-8209
▁ended	-8210
▁ডেস্ক	-8211
▁Bu	-8212
▁পানির	-8213
▁Human	-8214
দু	-8215
▁ইতো	-8216
▁দৌ	-8217
▁ময়ন	-8218
▁নিষেধা	-8219
▁তাৎ	-8220
▁tree	-8221
▁officers	-8222
▁ধুয়ে	-8223
▁নদীর	-8224
ES	-8225
▁Net	-8226
োগ্রাফ	-8227
যথ	-8228
▁tourn	-8229
▁আমিই	-8230
▁কন্ট	-8231
▁তোলে	-8232
They	-8233
▁সময়ই	-8234
▁agreed	-8235
▁হচ্ছেন	-8236
▁round	-8237
▁honest	-8238
▁ত্রুটি	-8239
্যাকস	-8240
ইয়	-8241
▁planning	-8242
GB	-8243
▁আৰ	-8244
▁houses	-8245
▁পড়াশোনা	-8246
▁Micro	-8247
▁excited	-8248
▁ত্বকের	-8249
▁traffic	-8250
▁limited	-8251
▁weak	-8252
▁আইপি	-8253
▁dont	-8254
▁দুজনের	-8255
েলার	-8256
েন্টে	-8257
মু	-8258
▁শিব	-8259
▁extend	-8260
▁Very	-8261
▁দুঃখিত	-8262
▁চলাচল	-8263
My	-8264
▁lic	-8265
▁বুধবার	-8266
▁পর্	-8267
▁আনন্দিত	-8268
▁elected	-8269
▁latest	-8270
স্থায়ী	-8271
েরও	-8272
▁দর্শন	-8273
▁ফাংশন	-8274
aches	-8275
▁Road	-8276
বহুল	-8277
▁ঠিকানা	-8278
▁কের	-8279
ার্ল্ড	-8280
▁সমী	-8281
▁একাডেম	-8282
mon	-8283
▁ব্যায়	-8284
▁Sunday	-8285
▁vehicles	-8286
▁encoura	-8287
▁forever	-8288
▁পরই	-8289
▁মেয়েদের	-8290
জ্জা	-8291
হত্যা	-8292
▁মিশ্রণ	-8293
▁Try	-8294
ratic	-8295
ড্ড	-8296
▁জর্	-8297
▁propos	-8298
ান্তের	-8299
▁Red	-8300
▁কোচ	-8301
▁humans	-8302
▁Group	-8303
িরা	-8304
▁rooms	-8305
▁বলবে	-8306
▁দাস	-8307
▁anti	-8308
▁ছোট্ট	-8309
▁Rail	-8310
▁চলতি	-8311
সিসি	-8312
▁মিলে	-8313
▁Ser	-8314
▁খাবারের	-8315
▁ভাঙ	-8316
ED	-8317
▁বাম	-8318
▁সন্ধ	-8319
▁কর্প	-8320
্দি	-8321
rial	-8322
ternal	-8323
▁যতটা	-8324
▁Answer	-8325
▁এড়	-8326
▁spent	-8327
▁উইকেট	-8328
▁Award	-8329
▁মহারা	-8330
াতদন্ত	-8331
▁Lanka	-8332
▁কাহিনী	-8333
▁divided	-8334
▁dele	-8335
▁ন্যায়	-8336
▁তারকা	-8337
▁target	-8338
িনিয়র	-8339
▁Office	-8340
▁যথ	-8341
▁ভক্ত	-8342
▁prison	-8343
াস্থ্যকর	-8344
▁Ud	-8345
ruption	-8346
mi	-8347
▁behav	-8348
▁mental	-8349
▁starting	-8350
স্তা	-8351
▁scene	-8352
anced	-8353
্রীর	-8354
▁suddenly	-8355
▁Dav	-8356
▁ভিডিওটি	-8357
▁করলো	-8358
▁plays	-8359
▁পৌর	-8360
▁সরল	-8361
▁Water	-8362
onst	-8363
▁none	-8364
istics	-8365
▁লীগ	-8366
▁finished	-8367
tained	-8368
▁পরিবর্তে	-8369
▁আয়ো	-8370
▁সুবি	-8371
▁transfer	-8372
▁sense	-8373
▁sexual	-8374
▁বৃহস্পতি	-8375
▁Keep	-8376
▁heaven	-8377
▁দিয়েছিল	-8378
ika	-8379
▁indic	-8380
▁Int	-8381
aste	-8382
▁চামচ	-8383
▁Thanks	-8384
জম	-8385
শিং	-8386
বিআই	-8387
▁শাসন	-8388
▁অন্যের	-8389
▁ত্যাগ	-8390
▁brain	-8391
▁কোভিড	-8392
▁severe	-8393
abinet	-8394
▁বয়সের	-8395
▁conc	-8396
▁যাঁ	-8397
▁served	-8398
▁reject	-8399
▁অন্যদিকে	-8400
ঙ্কার	-8401
বেশন	-8402
▁helped	-8403
▁যাবো	-8404
টারে	-8405
▁nor	-8406
▁witness	-8407
▁sons	-8408
▁ফেডার	-8409
▁Author	-8410
EO	-8411
▁দফ	-8412
▁মোটেও	-8413
▁নগর	-8414
▁নাটক	-8415
ক্ষেত্রে	-8416
▁welcome	-8417
izing	-8418
pite	-8419
▁দেখিয়ে	-8420
Ch	-8421
▁x	-8422
▁Sabha	-8423
▁সবকিছুই	-8424
▁পাইনি	-8425
▁ফরাসি	-8426
▁Engine	-8427
▁Second	-8428
▁shut	-8429
▁অর্ধেক	-8430
▁উৎসব	-8431
▁rather	-8432
▁অভিযোগে	-8433
ভাস	-8434
▁Over	-8435
▁কোর্স	-8436
▁মাত	-8437
▁পাখি	-8438
▁continu	-8439
▁উপকরণ	-8440
▁সত্ত্বেও	-8441
▁eating	-8442
▁সাহিত্য	-8443
▁প্রসঙ্গে	-8444
▁cross	-8445
যদি	-8446
শ্যক	-8447
▁lay	-8448
▁উপক	-8449
▁যথাযথ	-8450
down	-8451
▁কথার	-8452
▁Vice	-8453
▁hurt	-8454
▁News	-8455
▁brothers	-8456
প্রতি	-8457
▁occurred	-8458
▁ভাষার	-8459
▁summer	-8460
▁বিপদ	-8461
▁primary	-8462
▁Gree	-8463
▁Four	-8464
▁পাচ্ছেন	-8465
▁colors	-8466
▁descri	-8467
▁কর্তব্য	-8468
▁weap	-8469
রাত	-8470
▁clos	-8471
▁brief	-8472
▁কই	-8473
▁carried	-8474
'.	-8475
▁Utt	-8476
orthern	-8477
▁limit	-8478
থরুম	-8479
▁pow	-8480
▁চেন	-8481
▁দেখিনি	-8482
▁ing	-8483
▁27	-8484
ভো	-8485
▁injuries	-8486
▁Mother	-8487
orters	-8488
▁স্ল	-8489
▁Roy	-8490
iah	-8491
▁মুছে	-8492
টাগ্রাম	-8493
▁Mac	-8494
▁প্যাকে	-8495
anish	-8496
▁লাগলো	-8497
ভিত্তিক	-8498
▁তুলনা	-8499
▁যু	-8500
riate	-8501
▁denied	-8502
5,	-8503
▁রবি	-8504
▁কর্মচার	-8505
▁সিনিয়র	-8506
▁colour	-8507
ares	-8508
▁গবেষ	-8509
iced	-8510
▁অংশে	-8511
▁greatest	-8512
ibrary	-8513
▁থেকেও	-8514
▁Make	-8515
▁লম্বা	-8516
য়ত	-8517
▁কোনটি	-8518
▁shown	-8519
▁Salman	-8520
▁কাজেই	-8521
োর্স	-8522
▁এসেছেন	-8523
▁ভুগ	-8524
▁বাথরুম	-8525
শিত	-8526
▁Hindi	-8527
▁older	-8528
িয়াস	-8529
light	-8530
▁এভাবেই	-8531
▁দিই	-8532
▁speech	-8533
মাধ্যম	-8534
▁রাতের	-8535
তাব	-8536
lex	-8537
▁কল্যা	-8538
▁শনিবার	-8539
▁দেখানো	-8540
▁বিক্রয়	-8541
▁বিএনপি	-8542
▁আগেও	-8543
cel	-8544
▁বিপুল	-8545
▁fourth	-8546
▁অপারে	-8547
▁শরীরে	-8548
▁পার্টির	-8549
▁Know	-8550
▁মাদক	-8551
▁allows	-8552
3)	-8553
▁চট্ট	-8554
▁কয়েকদিন	-8555
▁integr	-8556
poration	-8557
▁কয়েকটা	-8558
▁কল্পনা	-8559
াস্ক	-8560
▁ফো	-8561
িংক	-8562
▁Great	-8563
▁measures	-8564
▁ধৈ	-8565
▁জাতির	-8566
তাই	-8567
▁মুভি	-8568
▁studies	-8569
▁changing	-8570
ডিয়ার	-8571
▁Research	-8572
▁গৌ	-8573
▁চালানো	-8574
▁অজ	-8575
▁নাও	-8576
▁সোন	-8577
▁কণ্ঠ	-8578
word	-8579
▁স্থির	-8580
▁ব্যাট	-8581
rated	-8582
▁sorry	-8583
ডিট	-8584
▁বিতরণ	-8585
ena	-8586
ength	-8587
iy	-8588
▁ভুলবেন	-8589
▁মতোই	-8590
▁ফোনে	-8591
▁গর	-8592
▁Open	-8593
▁অনেকের	-8594
▁document	-8595
▁সংখ্যক	-8596
▁মসজিদ	-8597
▁আহমদ	-8598
uesday	-8599
▁ক্লান্ত	-8600
▁করোনাভাই	-8601
▁notice	-8602
▁Ban	-8603
▁সমস্যায়	-8604
▁feature	-8605
coming	-8606
▁tough	-8607
▁তৈরী	-8608
▁থানার	-8609
▁নিয়েছি	-8610
▁কয়	-8611
▁টুইট	-8612
ার্থীরা	-8613
ias	-8614
ফাই	-8615
াদে	-8616
▁পরস্প	-8617
▁negative	-8618
▁iPhone	-8619
▁এঁ	-8620
▁arch	-8621
াধিকার	-8622
▁stars	-8623
প্তি	-8624
fortun	-8625
▁প্রজন্ম	-8626
টপ	-8627
▁করতেই	-8628
▁Turkey	-8629
▁সাহস	-8630
▁restaur	-8631
▁tomorrow	-8632
ley	-8633
▁পেরেছি	-8634
:4	-8635
iling	-8636
▁পড়ল	-8637
চিৎ	-8638
▁সূর্য	-8639
orge	-8640
ম্বে	-8641
▁revealed	-8642
llah	-8643
▁ক্যাম্প	-8644
edding	-8645
▁ক্যান	-8646
দায়ক	-8647
াইহি	-8648
▁Beaut	-8649
▁adult	-8650
▁টেক্স	-8651
▁ভেতর	-8652
▁পর্যটন	-8653
▁ir	-8654
▁সমাজের	-8655
▁Sur	-8656
rast	-8657
স্তে	-8658
▁Nations	-8659
▁Tra	-8660
▁Hist	-8661
▁সরে	-8662
▁আলোচনার	-8663
char	-8664
থেকে	-8665
▁আফ্রিকার	-8666
▁গ্রামের	-8667
▁সুরক্ষিত	-8668
▁Such	-8669
▁উজ্জ্বল	-8670
▁enjoyed	-8671
▁মহাসচিব	-8672
▁এরই	-8673
ipment	-8674
▁আইনজীবী	-8675
▁আস্থা	-8676
▁pleas	-8677
▁bin	-8678
▁runs	-8679
▁প্রবাহ	-8680
▁অপারেটিং	-8681
▁centre	-8682
্লাল্লাহ	-8683
▁অর্ডার	-8684
▁beg	-8685
▁রীতি	-8686
▁টু	-8687
▁Mahar	-8688
pro	-8689
▁পাবলিক	-8690
▁যাইহোক	-8691
▁Being	-8692
পিত	-8693
▁এন্ড	-8694
▁ঘটল	-8695
▁উপস্থাপন	-8696
▁বিশ্রাম	-8697
▁style	-8698
▁আৰু	-8699
iq	-8700
▁forest	-8701
IN	-8702
▁attacks	-8703
▁ইস্য	-8704
▁অপারেশন	-8705
▁বংশ	-8706
▁appeal	-8707
AR	-8708
▁novel	-8709
▁সংক্রমণ	-8710
8.	-8711
▁underway	-8712
টল	-8713
▁জাহাজ	-8714
▁বিজয়ী	-8715
▁চীনা	-8716
▁ability	-8717
▁moving	-8718
iance	-8719
ব্ল	-8720
াতের	-8721
lected	-8722
▁Next	-8723
সাই	-8724
▁উক্ত	-8725
▁designed	-8726
▁coun	-8727
▁greater	-8728
▁Char	-8729
▁অফিসে	-8730
2,	-8731
▁সৌন্দর	-8732
▁Sud	-8733
erous	-8734
rage	-8735
▁এমনটাই	-8736
▁coffee	-8737
uters	-8738
▁basic	-8739
▁Those	-8740
ঙ্কর	-8741
▁ton	-8742
soft	-8743
itchen	-8744
ীম	-8745
▁Vir	-8746
▁আসেনি	-8747
▁কমিশনার	-8748
▁lod	-8749
পেক্ষ	-8750
▁chairman	-8751
▁ঢুক	-8752
▁খেয়ে	-8753
▁mine	-8754
▁স্তর	-8755
▁কৌ	-8756
▁অভিভাব	-8757
▁cup	-8758
▁Nepal	-8759
মেয়	-8760
▁Tamil	-8761
▁নিজেও	-8762
▁cert	-8763
▁তিনিই	-8764
▁Kab	-8765
oe	-8766
▁Italy	-8767
▁পুনর্	-8768
AM	-8769
arant	-8770
▁Satur	-8771
▁Hy	-8772
iles	-8773
spe	-8774
▁ফেলা	-8775
▁copy	-8776
jar	-8777
▁চার্জ	-8778
▁acqu	-8779
▁সমাপ্ত	-8780
▁অধ্যয়ন	-8781
▁brows	-8782
▁উপদে	-8783
▁Sim	-8784
eds	-8785
▁হব	-8786
▁subst	-8787
▁tele	-8788
তীয়	-8789
alent	-8790
▁trouble	-8791
▁ক্ষুদ্র	-8792
▁মূল্যবান	-8793
▁জঙ্গি	-8794
▁পর্যালো	-8795
▁পাঠিয়ে	-8796
ওয়াল	-8797
▁seeing	-8798
▁center	-8799
▁সমালোচনা	-8800
▁খানিক	-8801
▁altern	-8802
▁বুদ্ধি	-8803
্লাল্লাহু	-8804
▁যেসব	-8805
▁ইউরোপের	-8806
▁শুটিং	-8807
াপুর	-8808
change	-8809
▁ঝড়	-8810
▁হেসে	-8811
▁অনন্য	-8812
ওয়াজ	-8813
▁আব্দুল	-8814
▁উন্মুক্ত	-8815
বীর	-8816
▁উইল	-8817
▁Count	-8818
▁বায়ু	-8819
▁Bre	-8820
▁Public	-8821
উন	-8822
্যাক্ট	-8823
▁Tuesday	-8824
▁আসন	-8825
▁দুপুর	-8826
▁ওপেন	-8827
▁মেঘ	-8828
▁195	-8829
▁speaking	-8830
কির	-8831
▁kinds	-8832
▁পক্ষের	-8833
বাধিকার	-8834
ুলি	-8835
▁frequ	-8836
▁সত্যিকার	-8837
▁ball	-8838
▁Che	-8839
▁mer	-8840
লেও	-8841
▁ক্রিয়া	-8842
▁justice	-8843
নাল	-8844
▁নেবে	-8845
6.	-8846
ader	-8847
াগর	-8848
▁ওয়ান	-8849
▁উত্তম	-8850
ষিত	-8851
বাল	-8852
প্তর	-8853
▁Mexic	-8854
craft	-8855
▁পাতা	-8856
ক্ল	-8857
▁ইউরো	-8858
ronic	-8859
▁lies	-8860
▁পানীয়	-8861
▁talked	-8862
▁mos	-8863
▁diseases	-8864
▁Mom	-8865
▁আটকে	-8866
▁টুর্	-8867
gar	-8868
rid	-8869
▁আলাপ	-8870
▁Dad	-8871
▁বইয়ের	-8872
iabet	-8873
▁নীর	-8874
▁লেন	-8875
▁উচিৎ	-8876
▁দম্প	-8877
▁নকশা	-8878
▁While	-8879
▁ক্যাপ	-8880
ednes	-8881
ammu	-8882
▁Follow	-8883
▁distance	-8884
গিত	-8885
ault	-8886
▁shooting	-8887
▁Pat	-8888
ixture	-8889
▁শুরুর	-8890
সাল	-8891
▁Bas	-8892
▁wishes	-8893
▁goals	-8894
▁cat	-8895
রন	-8896
isl	-8897
▁giving	-8898
▁causes	-8899
▁cover	-8900
ূন্য	-8901
ales	-8902
▁২১	-8903
▁pred	-8904
▁গ্রামে	-8905
▁সভা	-8906
▁lawy	-8907
স্থায়	-8908
▁100%	-8909
▁ট্রান্স	-8910
▁Amaz	-8911
▁deceased	-8912
▁sweet	-8913
▁anybody	-8914
▁মোদি	-8915
▁আসি	-8916
▁highly	-8917
pects	-8918
▁sites	-8919
igence	-8920
▁বাইবেল	-8921
রান	-8922
▁গাজ	-8923
ন্তু	-8924
urance	-8925
▁ফেলতে	-8926
▁Students	-8927
▁cru	-8928
▁rare	-8929
▁অস্তিত্ব	-8930
▁gives	-8931
▁৪০	-8932
দায়ের	-8933
▁ইরানের	-8934
▁টুর্নাম	-8935
▁অসুবিধা	-8936
▁সুন	-8937
▁করছিল	-8938
▁যুগ্ম	-8939
▁4.	-8940
▁flood	-8941
anch	-8942
িলি	-8943
▁সেজন্য	-8944
িকর	-8945
▁whatever	-8946
▁partners	-8947
▁স্বীকৃতি	-8948
▁ওয়াশিং	-8949
▁ঘণ্টা	-8950
ulate	-8951
▁পুরনো	-8952
▁খাওয়ার	-8953
▁resign	-8954
Are	-8955
▁sick	-8956
nat	-8957
▁tea	-8958
alys	-8959
▁এমনই	-8960
▁ম্যাচের	-8961
▁Bengali	-8962
ait	-8963
▁meant	-8964
তিকর	-8965
▁খালি	-8966
▁বলিয়া	-8967
hal	-8968
▁মেক্স	-8969
▁judge	-8970
▁পারছে	-8971
ednesday	-8972
alse	-8973
বুর	-8974
দূর	-8975
▁species	-8976
▁যেটি	-8977
▁White	-8978
▁bi	-8979
▁victory	-8980
▁উদ্ভি	-8981
201	-8982
▁Uttar	-8983
▁Bill	-8984
xy	-8985
emic	-8986
▁অক্ষ	-8987
▁charges	-8988
▁Division	-8989
▁কুকি	-8990
▁থাকব	-8991
resh	-8992
মাতে	-8993
▁nom	-8994
▁চলমান	-8995
▁Centre	-8996
▁acting	-8997
▁favorite	-8998
▁সদস্যরা	-8999
▁govern	-9000
▁অন্যরকম	-9001
log	-9002
urg	-9003
iation	-9004
্বার	-9005
▁ফটো	-9006
▁দিলে	-9007
▁আত্মীয়	-9008
▁২২	-9009
▁ধারা	-9010
▁stood	-9011
!"""	-9012
িশীল	-9013
▁Almost	-9014
▁Academ	-9015
▁suitable	-9016
▁critical	-9017
▁Assembly	-9018
ateful	-9019
▁ancient	-9020
▁ডল	-9021
▁Ed	-9022
▁স্ট্র	-9023
গঠ	-9024
োয়ার	-9025
▁অতীত	-9026
▁Jammu	-9027
▁নেবেন	-9028
্দের	-9029
▁শিল্পী	-9030
▁activity	-9031
বর্ধ	-9032
▁ঘনিষ্ঠ	-9033
▁decide	-9034
▁incred	-9035
▁সম্মেলন	-9036
▁methods	-9037
▁ঘটবে	-9038
ফারেন্স	-9039
কু	-9040
▁পরাজ	-9041
ভিউ	-9042
▁কৃতজ্ঞতা	-9043
▁conflic	-9044
▁জোট	-9045
▁হার্ট	-9046
চ্ছন্ন	-9047
▁ওয়েস্ট	-9048
▁ছুটি	-9049
,...	-9050
▁বৈধ	-9051
▁Last	-9052
▁রচনা	-9053
acity	-9054
▁সংস্কার	-9055
oses	-9056
▁rank	-9057
▁মেয়র	-9058
▁চাষ	-9059
▁illeg	-9060
uclear	-9061
জ্জামান	-9062
▁enem	-9063
▁ফার	-9064
▁launch	-9065
▁Saturday	-9066
▁Service	-9067
▁watching	-9068
▁এদিন	-9069
▁70	-9070
▁medicine	-9071
শত	-9072
▁প্রতিনিধ	-9073
▁Democ	-9074
▁পুরুষদের	-9075
▁USA	-9076
▁waste	-9077
ডাক	-9078
্রাজ	-9079
▁অ্যাপল	-9080
▁ministry	-9081
▁Mahmud	-9082
▁উপদেষ্টা	-9083
▁origin	-9084
▁সরকারী	-9085
▁trees	-9086
▁পারো	-9087
▁তাহাকে	-9088
▁শর্মা	-9089
▁gradu	-9090
▁গ্রন্থ	-9091
idential	-9092
rees	-9093
▁stuff	-9094
▁ভালোভাবে	-9095
▁ইতাল	-9096
▁mixture	-9097
▁ast	-9098
▁Officer	-9099
▁ডাটা	-9100
▁Food	-9101
▁মুহুর্ত	-9102
ত্যাগ	-9103
▁জরি	-9104
▁প্রতিবেশ	-9105
mad	-9106
▁argu	-9107
▁হাজির	-9108
▁বাড়তে	-9109
ohol	-9110
▁Park	-9111
▁পাচ্ছে	-9112
▁restrict	-9113
SS	-9114
▁Econom	-9115
▁অবলম্ব	-9116
▁বিপরীত	-9117
▁আদালতের	-9118
▁যোগ্যতা	-9119
▁কাউন্সিল	-9120
ড়ায়	-9121
োসিয়ে	-9122
▁entered	-9123
িসের	-9124
েক্টর	-9125
▁removed	-9126
▁lie	-9127
▁ইতিহাসের	-9128
▁লক	-9129
শক্তি	-9130
করণের	-9131
▁অর্থে	-9132
▁অনেকগুলি	-9133
cohol	-9134
▁trial	-9135
▁favour	-9136
াঙ্গ	-9137
▁kitchen	-9138
▁স্থগিত	-9139
▁ইরান	-9140
hington	-9141
▁চিকিৎসার	-9142
▁চিন্তিত	-9143
▁sust	-9144
▁fighting	-9145
▁ভ্যাকস	-9146
▁মার্কে	-9147
▁সমগ্র	-9148
ken	-9149
▁হামলায়	-9150
▁title	-9151
েন্সি	-9152
oring	-9153
▁কলকাতা	-9154
ux	-9155
▁বেতন	-9156
▁স্কুলের	-9157
▁কিনে	-9158
▁১৯৬	-9159
▁বোর্	-9160
4,	-9161
▁কাটিয়ে	-9162
▁ফায়ার	-9163
▁raised	-9164
▁সেন্টার	-9165
▁মোকাব	-9166
▁বেসরকারি	-9167
পো	-9168
▁যুদ্ধে	-9169
▁নোট	-9170
▁প্রেরণ	-9171
টকে	-9172
▁stress	-9173
রুল	-9174
▁constit	-9175
িয়েল	-9176
▁প্রকৃতি	-9177
▁ধৈর্য	-9178
▁session	-9179
▁উত্তরঃ	-9180
▁ভিত্তিক	-9181
▁Att	-9182
rel	-9183
▁লোকদের	-9184
▁প্রসঙ্গ	-9185
▁0.	-9186
্ডিং	-9187
▁মাইক্রো	-9188
▁Custom	-9189
্টো	-9190
▁fans	-9191
ooth	-9192
পান	-9193
▁cerem	-9194
ses	-9195
ursday	-9196
▁ep	-9197
▁কাব	-9198
▁বিশ্বকাপ	-9199
▁বাক্য	-9200
▁har	-9201
▁বরাবর	-9202
▁Phot	-9203
▁seats	-9204
ammed	-9205
▁আলি	-9206
iverse	-9207
▁eld	-9208
▁মাঠে	-9209
▁Use	-9210
নাই	-9211
▁কফি	-9212
▁টিকা	-9213
▁pleased	-9214
▁বৃদ্ধির	-9215
▁ইরা	-9216
▁Back	-9217
▁deaths	-9218
▁captain	-9219
বতী	-9220
ৈধ	-9221
▁ফ্রে	-9222
চালক	-9223
ww	-9224
▁কাস্ট	-9225
▁বাছ	-9226
apers	-9227
াণ্ড	-9228
▁শহী	-9229
▁বিনোদ	-9230
▁ধূ	-9231
"",	-9232
▁Asian	-9233
urning	-9234
▁ঝাম	-9235
▁খানের	-9236
ভূমি	-9237
▁স্টা	-9238
▁note	-9239
ওয়াই	-9240
যা	-9241
▁consult	-9242
▁সিংহ	-9243
▁বিলিয়ন	-9244
▁Fam	-9245
▁অবসর	-9246
ায়নিক	-9247
▁average	-9248
▁স্পর্শ	-9249
ening	-9250
▁তামিল	-9251
▁festival	-9252
▁Britain	-9253
▁পরিসং	-9254
▁unknown	-9255
▁আবাস	-9256
▁appeared	-9257
▁ইসরা	-9258
▁চালক	-9259
▁Wel	-9260
▁কানে	-9261
▁Paris	-9262
▁becoming	-9263
▁প্রকা	-9264
▁কক্ষ	-9265
ামীর	-9266
▁feed	-9267
▁স্বাদ	-9268
▁David	-9269
▁আপনিও	-9270
▁log	-9271
▁হইয়াছে	-9272
▁মিষ্টি	-9273
▁wedding	-9274
▁খ্রী	-9275
4)	-9276
MS	-9277
▁সহকারী	-9278
.,	-9279
5)	-9280
নির	-9281
▁সংশোধন	-9282
বস্ত	-9283
▁পারিবার	-9284
▁বৈদ্য	-9285
▁মেন	-9286
তান্ত্রিক	-9287
▁প্রি	-9288
▁remove	-9289
▁দীপ	-9290
▁আওতায়	-9291
▁রসুন	-9292
▁Ham	-9293
▁Mem	-9294
▁এইটা	-9295
▁মুম্বাই	-9296
▁affect	-9297
aya	-9298
▁Mat	-9299
▁সকলকে	-9300
MP	-9301
পদ	-9302
▁mask	-9303
▁শেষের	-9304
▁shouldn	-9305
▁সহিংস	-9306
▁Step	-9307
▁করিয়ে	-9308
▁Indust	-9309
▁তৎ	-9310
মার্ক	-9311
▁উত্তরে	-9312
▁offered	-9313
su	-9314
ashtra	-9315
▁items	-9316
▁অনুশীলন	-9317
হান	-9318
▁রোমান	-9319
▁বারবার	-9320
▁এসেছিল	-9321
▁concept	-9322
ির্	-9323
▁কাঁদ	-9324
▁মরিচ	-9325
▁slowly	-9326
হ্যা	-9327
▁কেহ	-9328
lin	-9329
▁Gujar	-9330
quir	-9331
▁length	-9332
,'	-9333
▁broad	-9334
outhern	-9335
▁পার্শ্ব	-9336
jee	-9337
anted	-9338
▁soul	-9339
▁micro	-9340
▁Ib	-9341
▁Qur	-9342
▁বাগ	-9343
▁পরিষদের	-9344
াতায়	-9345
▁মহাকাশ	-9346
সদ	-9347
স্টিং	-9348
পল	-9349
▁লঙ্ঘ	-9350
স্টার	-9351
▁সনাক্ত	-9352
▁standard	-9353
▁placed	-9354
ঞ্জাব	-9355
▁ব্যাঙ্ক	-9356
▁500	-9357
▁যানবাহ	-9358
▁jobs	-9359
িষ্ট	-9360
asc	-9361
▁ইয়া	-9362
▁beauty	-9363
Do	-9364
▁suspend	-9365
▁din	-9366
friend	-9367
▁seemed	-9368
▁Happ	-9369
▁দখল	-9370
▁পুষ্টি	-9371
▁Feder	-9372
▁জরুরী	-9373
▁NOT	-9374
ফুল	-9375
ka	-9376
""."	-9377
rish	-9378
▁proced	-9379
▁রণ	-9380
▁fif	-9381
▁আবেগ	-9382
▁শিগগিরই	-9383
▁Thursday	-9384
3,	-9385
েলের	-9386
▁প্রচলিত	-9387
▁vice	-9388
জীবন	-9389
▁Koh	-9390
▁roads	-9391
▁29	-9392
▁স্বল্প	-9393
▁false	-9394
▁strange	-9395
merce	-9396
▁tro	-9397
▁চন্দ্র	-9398
▁gift	-9399
সই	-9400
টাইল	-9401
▁দীর্ঘদিন	-9402
▁Big	-9403
▁তহ	-9404
▁motor	-9405
▁talks	-9406
▁ম্যাক	-9407
▁আহতদের	-9408
▁Zia	-9409
একটি	-9410
▁laugh	-9411
▁budget	-9412
ত্	-9413
▁credit	-9414
বাদের	-9415
▁প্রমাণিত	-9416
যাত্র	-9417
me	-9418
▁আইফোন	-9419
▁island	-9420
▁সাইটে	-9421
শক	-9422
▁অমিত	-9423
তারা	-9424
বর্ষ	-9425
▁মরে	-9426
▁saved	-9427
▁জের	-9428
▁স্টার	-9429
▁treated	-9430
▁entirely	-9431
ফ্র	-9432
▁পারতাম	-9433
▁ফট	-9434
ামূলক	-9435
▁কার্যাল	-9436
▁একত্র	-9437
▁ব্যাংকের	-9438
▁suffe	-9439
lock	-9440
▁ইবনে	-9441
ন্ত্রিত	-9442
▁কেন্দ	-9443
▁consist	-9444
▁সীমান্ত	-9445
ত্বের	-9446
▁skills	-9447
▁পুনরুদ্ধ	-9448
▁বয়স্ক	-9449
mas	-9450
oted	-9451
▁হার্ড	-9452
আপনার	-9453
▁নমুনা	-9454
▁vaccine	-9455
▁শত্রু	-9456
▁পারত	-9457
ression	-9458
হু	-9459
ino	-9460
▁approved	-9461
▁চক্র	-9462
▁অবিল	-9463
▁তৈরির	-9464
▁আবেদ	-9465
▁অ্যাক	-9466
▁Ran	-9467
▁numerous	-9468
▁গর্বিত	-9469
illa	-9470
▁জনকে	-9471
▁সেসব	-9472
▁প্রাস	-9473
▁Gh	-9474
▁Election	-9475
▁সোজা	-9476
▁fruit	-9477
▁caught	-9478
▁গ্রহণের	-9479
তিয়ে	-9480
▁চেহারা	-9481
ব্যা	-9482
anda	-9483
▁পরিমা	-9484
▁সম্পত্তি	-9485
▁বিস্ময়	-9486
▁জম্ম	-9487
itionally	-9488
▁animal	-9489
▁punish	-9490
▁খব	-9491
▁approp	-9492
▁Sar	-9493
▁ফেসবুকে	-9494
▁Yet	-9495
▁artist	-9496
▁ব্যায়াম	-9497
▁ধরতে	-9498
▁মোটাম	-9499
▁wat	-9500
▁ফিলিপ	-9501
estic	-9502
তাদের	-9503
▁Like	-9504
▁fly	-9505
▁কোষ	-9506
wan	-9507
▁purchase	-9508
▁বৈদ্যুত	-9509
▁আইনি	-9510
gent	-9511
▁লিমি	-9512
পর্য	-9513
▁সুস্ব	-9514
▁কোনদিন	-9515
ipl	-9516
▁জাপান	-9517
▁ব্রাউজার	-9518
▁Spain	-9519
▁পছন্দের	-9520
বৃত্তি	-9521
▁Ben	-9522
চু	-9523
▁বস্তু	-9524
▁ইউটিউব	-9525
▁দিল্লির	-9526
▁Inde	-9527
কত	-9528
▁chemical	-9529
▁max	-9530
5%	-9531
▁ভাইস	-9532
ৃষ্ট	-9533
▁wickets	-9534
▁awesome	-9535
gue	-9536
pan	-9537
▁জাগ	-9538
▁জিন	-9539
▁কার্ব	-9540
ctors	-9541
sych	-9542
▁বলেছিল	-9543
▁স্টেট	-9544
▁crying	-9545
▁ক্রিস	-9546
▁lodged	-9547
▁জানিনা	-9548
াসা	-9549
▁ঠিকই	-9550
▁উড়	-9551
▁সরকারকে	-9552
▁হোয়	-9553
▁Under	-9554
ন্যাশনাল	-9555
▁অবিলম্বে	-9556
▁grateful	-9557
▁trip	-9558
▁অবৈধ	-9559
▁agency	-9560
▁বৌ	-9561
ava	-9562
▁"(	-9563
এবং	-9564
▁দেরি	-9565
▁পারফরম	-9566
▁mouth	-9567
যো	-9568
▁demanded	-9569
▁El	-9570
▁sin	-9571
▁সামগ্রী	-9572
inary	-9573
▁গ্যা	-9574
জ্ঞানিক	-9575
ন্দেহে	-9576
▁ধারাবাহ	-9577
▁gain	-9578
▁advis	-9579
▁মেট্র	-9580
▁ক্লিন	-9581
▁plenty	-9582
াতদন্তের	-9583
▁EU	-9584
▁Former	-9585
▁organiz	-9586
▁মুখের	-9587
▁funny	-9588
▁বর্ণিত	-9589
▁প্রবন্ধ	-9590
▁payment	-9591
hatt	-9592
▁Ira	-9593
াদিত	-9594
▁Naz	-9595
গরি	-9596
▁আশ্রয়	-9597
▁জানাচ্ছি	-9598
▁তেম	-9599
▁প্রজাত	-9600
nded	-9601
yond	-9602
▁crim	-9603
▁seconds	-9604
▁অনুগ্রহ	-9605
দানের	-9606
▁তোকে	-9607
kar	-9608
▁wear	-9609
▁territ	-9610
▁নেতৃত্বে	-9611
▁bal	-9612
▁উদ্ভাব	-9613
▁ট্য	-9614
▁firm	-9615
▁pepper	-9616
▁forms	-9617
▁পার্ক	-9618
▁east	-9619
edic	-9620
noon	-9621
than	-9622
▁যাকে	-9623
▁Ahmad	-9624
ংক্রিয়	-9625
টেম	-9626
iar	-9627
▁উষ্ণ	-9628
▁drugs	-9629
▁original	-9630
▁Whats	-9631
▁remark	-9632
MC	-9633
▁Uddin	-9634
▁Must	-9635
cean	-9636
▁decre	-9637
ource	-9638
▁১৯৪	-9639
▁উপলক্ষে	-9640
▁Sum	-9641
▁serve	-9642
▁offers	-9643
▁ভাবেই	-9644
োর্টে	-9645
িনিয়ারিং	-9646
▁তম	-9647
▁যীশু	-9648
je	-9649
▁নেপ	-9650
▁সম্মুখ	-9651
▁Ra	-9652
▁পিতার	-9653
▁Haque	-9654
▁conduct	-9655
▁জগত	-9656
▁পড়েছেন	-9657
▁বর্ষ	-9658
▁তখনও	-9659
▁ক্ষমতায়	-9660
শনে	-9661
▁figure	-9662
▁পড়বে	-9663
সির	-9664
▁suffered	-9665
Ind	-9666
▁ঢে	-9667
িগ্ন	-9668
াস্ত্র	-9669
ট্য	-9670
▁তিনিও	-9671
▁FI	-9672
াতেই	-9673
▁instead	-9674
▁অগ্রগতি	-9675
▁ব্যাটারি	-9676
▁অনুপ	-9677
itch	-9678
▁আকারে	-9679
▁ভাড়া	-9680
▁পুনরা	-9681
র্ঘ	-9682
▁অবধি	-9683
ুশ	-9684
▁মোটামুটি	-9685
unt	-9686
▁পোর্ট	-9687
chol	-9688
্রিয়ার	-9689
▁Click	-9690
টাতে	-9691
সম্ম	-9692
stood	-9693
▁meat	-9694
ilos	-9695
arently	-9696
নিং	-9697
rupt	-9698
▁ইঞ্জিন	-9699
▁হও	-9700
▁mid	-9701
▁clearly	-9702
▁earn	-9703
int	-9704
কেন	-9705
▁ওয়াই	-9706
▁broke	-9707
▁গানের	-9708
২১	-9709
▁subs	-9710
▁rapid	-9711
▁Lok	-9712
▁করবার	-9713
▁রেডিও	-9714
▁ইউএস	-9715
▁মেক্সিক	-9716
▁লিংক	-9717
▁Japanese	-9718
▁আনন্দের	-9719
▁goods	-9720
▁হওয়ায়	-9721
▁willing	-9722
াবাদী	-9723
▁কার্	-9724
▁determin	-9725
ster	-9726
ittag	-9727
▁partner	-9728
▁খালে	-9729
iam	-9730
▁unable	-9731
▁Cult	-9732
▁ঠাণ্ড	-9733
▁রুমে	-9734
ঞ্চলিক	-9735
▁এইসব	-9736
▁উপস	-9737
▁trib	-9738
▁Hence	-9739
▁Ange	-9740
▁Prot	-9741
▁west	-9742
▁programs	-9743
▁রোব	-9744
ittagong	-9745
জ্জনক	-9746
▁সামগ্র	-9747
চিত্রে	-9748
▁Contact	-9749
▁চাইতে	-9750
▁ইক	-9751
ক্রমণের	-9752
▁সীমা	-9753
▁Quest	-9754
mark	-9755
▁শিরোন	-9756
▁Malays	-9757
▁গবেষণায়	-9758
▁বিহার	-9759
পাশের	-9760
igation	-9761
▁password	-9762
▁Wi	-9763
▁কাদের	-9764
▁সঙ্গেই	-9765
▁সামনের	-9766
▁Bab	-9767
uled	-9768
▁হোয়াইট	-9769
ashed	-9770
▁আরেকটা	-9771
▁victims	-9772
gypt	-9773
▁চর্	-9774
▁cars	-9775
▁Once	-9776
▁সঠিকভাবে	-9777
▁dance	-9778
▁teach	-9779
opsy	-9780
▁Eas	-9781
▁Ter	-9782
CT	-9783
াত্ত	-9784
ার্সিটি	-9785
▁জৈ	-9786
▁বাড়াতে	-9787
▁wash	-9788
▁২০১৯	-9789
▁pregnant	-9790
াবল	-9791
ming	-9792
▁sam	-9793
▁posts	-9794
iabetes	-9795
▁যাবার	-9796
োহন	-9797
▁whose	-9798
▁বিশিষ্ট	-9799
osing	-9800
▁audience	-9801
▁fulf	-9802
▁univers	-9803
▁উদ্বিগ্ন	-9804
র্মে	-9805
▁soldiers	-9806
▁apolog	-9807
▁শুধুই	-9808
▁কাছেই	-9809
▁Free	-9810
▁বিষয়ের	-9811
▁prem	-9812
সিং	-9813
িমে	-9814
মানা	-9815
OU	-9816
▁seat	-9817
▁ত্বক	-9818
▁banned	-9819
▁নিউইয়	-9820
▁Jer	-9821
▁বলিতে	-9822
▁প্রদেশের	-9823
▁পণ্যের	-9824
▁সুল	-9825
াভাবিক	-9826
▁ভূমিক	-9827
App	-9828
▁তেমনি	-9829
▁প্রভু	-9830
▁ক্রীড়া	-9831
▁withd	-9832
▁টান	-9833
যুদ্ধের	-9834
্যাড	-9835
▁পেলে	-9836
▁killing	-9837
▁ordered	-9838
▁ভাবছি	-9839
▁সতর্কতা	-9840
িস্তানের	-9841
▁Paul	-9842
▁ডায়াবে	-9843
▁ব্যবসার	-9844
▁asking	-9845
orage	-9846
বিজ্ঞান	-9847
▁Family	-9848
▁ইন্স	-9849
▁প্রেমের	-9850
ালার	-9851
▁দের	-9852
▁tests	-9853
উই	-9854
▁কিসের	-9855
iant	-9856
▁ফুটে	-9857
ভেন	-9858
▁ceremony	-9859
▁31	-9860
▁কমাতে	-9861
▁begun	-9862
▁History	-9863
ভাষ	-9864
unch	-9865
▁২৩	-9866
▁দিনটি	-9867
▁স্বীকৃত	-9868
প্রেস	-9869
▁expand	-9870
▁matters	-9871
▁জার্মানি	-9872
▁Invest	-9873
▁widely	-9874
তামূলক	-9875
▁জিয়া	-9876
▁জয়ী	-9877
▁approach	-9878
▁আবশ্যক	-9879
▁ম্যাগ	-9880
▁এইভাবে	-9881
▁স্টোর	-9882
চিত্রের	-9883
▁কর্মসূচি	-9884
▁AL	-9885
▁tick	-9886
▁দৃষ্টিভ	-9887
▁জনসংখ্যা	-9888
▁error	-9889
▁১৯৫	-9890
▁coast	-9891
▁ju	-9892
▁বন্য	-9893
ilosop	-9894
▁রোজ	-9895
▁টমে	-9896
▁inaug	-9897
▁obvious	-9898
▁সিনেমার	-9899
িকের	-9900
▁রাখি	-9901
▁জম্মু	-9902
গোল	-9903
iplom	-9904
▁দম	-9905
▁ট্রাক	-9906
▁capacity	-9907
▁sn	-9908
▁Kohli	-9909
▁উভয়ের	-9910
▁কলেজে	-9911
▁upazila	-9912
▁5.	-9913
▁ব্রে	-9914
cipal	-9915
▁দেয়নি	-9916
▁অন্যায়	-9917
▁Ker	-9918
চনার	-9919
▁compon	-9920
Fi	-9921
▁ধরেই	-9922
▁সিরিজের	-9923
atoes	-9924
▁ঢাক	-9925
Who	-9926
▁বক্স	-9927
▁উপকারী	-9928
▁আঞ্চলিক	-9929
▁সাহায্যে	-9930
▁মহিলার	-9931
▁duty	-9932
▁perman	-9933
তল	-9934
▁বিপজ্জনক	-9935
▁sett	-9936
▁Iraq	-9937
▁হিন	-9938
alysis	-9939
স্কের	-9940
▁কমিশনের	-9941
ধন	-9942
▁32	-9943
▁দেই	-9944
▁তাহাদের	-9945
▁cloud	-9946
ঠাক	-9947
osh	-9948
▁দেখেছেন	-9949
▁testing	-9950
▁পাপ	-9951
▁খ্রীষ্ট	-9952
NA	-9953
▁কেনার	-9954
▁flowers	-9955
▁Gold	-9956
▁পুরা	-9957
▁মাইল	-9958
োসফ	-9959
দ্বন্দ্ব	-9960
▁taught	-9961
কর্মী	-9962
▁Talib	-9963
▁নীচের	-9964
▁autopsy	-9965
▁spoken	-9966
hab	-9967
▁হাঁট	-9968
▁advert	-9969
▁cash	-9970
▁marry	-9971
▁proof	-9972
▁Gujarat	-9973
▁রকমের	-9974
▁stock	-9975
▁পোষ্ট	-9976
RE	-9977
ann	-9978
▁যুবক	-9979
▁করিলেন	-9980
কান	-9981
▁Start	-9982
▁জড়িয়ে	-9983
iven	-9984
▁ট্রেড	-9985
▁যাচাই	-9986
▁অনুরূপ	-9987
▁homes	-9988
চ্ছু	-9989
ার্থে	-9990
▁ইঙ্গ	-9991
▁ইন্ড	-9992
▁ঘটেছিল	-9993
ন্টি	-9994
▁presence	-9995
cript	-9996
▁African	-9997
াকার	-9998
▁মেরে	-9999
▁তাকাল	-10000
▁মর্গে	-10001
▁follows	-10002
encies	-10003
নিজ	-10004
▁ইমেইল	-10005
▁ভাবি	-10006
ছাত্রী	-10007
term	-10008
dullah	-10009
▁crore	-10010
▁ডেভেল	-10011
▁dreams	-10012
▁visited	-10013
▁পরিদর্শন	-10014
ণ্ডের	-10015
▁minor	-10016
▁san	-10017
▁বিন্দ	-10018
▁সমাধানের	-10019
▁লজ্জা	-10020
▁stra	-10021
▁Academy	-10022
▁amb	-10023
▁Turk	-10024
▁secure	-10025
rooms	-10026
inc	-10027
▁Would	-10028
▁lovely	-10029
র্যের	-10030
▁প্রকৃতির	-10031
েম্বরে	-10032
?”	-10033
▁congr	-10034
▁সংঘর্ষ	-10035
তোমার	-10036
▁আলোক	-10037
▁rejected	-10038
▁ঘৃ	-10039
তাকে	-10040
▁Mexico	-10041
”।	-10042
inem	-10043
▁sharing	-10044
▁অত্যা	-10045
igr	-10046
▁crowd	-10047
▁truck	-10048
▁মিটার	-10049
▁প্রবল	-10050
▁slight	-10051
▁শুনেছি	-10052
টিরও	-10053
চারের	-10054
▁উঠছে	-10055
▁সফরে	-10056
চির	-10057
্ধব	-10058
▁বললো	-10059
▁ফেলুন	-10060
▁পানিতে	-10061
▁দুইটি	-10062
▁সফ্ট	-10063
▁সিঙ্গ	-10064
▁ingred	-10065
▁demonst	-10066
▁ইচ্ছ	-10067
াপতি	-10068
▁Egypt	-10069
▁nuclear	-10070
She	-10071
olit	-10072
ুঁত	-10073
টেই	-10074
▁disci	-10075
পুত	-10076
▁ওয়ার্ড	-10077
mbol	-10078
isher	-10079
▁tools	-10080
▁stayed	-10081
চ্য	-10082
bon	-10083
▁plane	-10084
▁আপত্তি	-10085
▁বৃষ্টির	-10086
খানি	-10087
▁চালা	-10088
inger	-10089
▁leaving	-10090
▁খ্রি	-10091
▁creating	-10092
▁সহ্য	-10093
▁mission	-10094
▁বাইরের	-10095
▁railway	-10096
porary	-10097
▁হত্যার	-10098
▁বলবো	-10099
▁Apply	-10100
iest	-10101
miss	-10102
▁ডেকে	-10103
▁unc	-10104
▁debate	-10105
▁ইউনিট	-10106
▁সূচনা	-10107
▁abroad	-10108
▁ম্যানেজ	-10109
▁২০১৮	-10110
▁pra	-10111
▁প্রেমে	-10112
▁বললে	-10113
চর	-10114
▁সৌন্দর্য	-10115
▁produce	-10116
ador	-10117
▁Glo	-10118
▁লাইব্র	-10119
▁rock	-10120
সভার	-10121
▁সারাদ	-10122
্রায়ে	-10123
▁cas	-10124
▁prec	-10125
ীর্ণ	-10126
ocol	-10127
▁অনুমোদিত	-10128
▁সমন্বয়	-10129
▁ইভেন্ট	-10130
▁জেলায়	-10131
▁terrible	-10132
▁পরম	-10133
▁আইনে	-10134
▁detained	-10135
খার	-10136
িটি	-10137
like	-10138
▁স্টোরে	-10139
ahu	-10140
ady	-10141
▁বয়ে	-10142
▁supposed	-10143
এখন	-10144
▁কৰ	-10145
▁boys	-10146
60	-10147
▁telling	-10148
▁আরম্ভ	-10149
▁Mor	-10150
▁sched	-10151
▁লগ	-10152
ুয়া	-10153
▁bag	-10154
▁রেখেছে	-10155
▁টুইটারে	-10156
▁টিপ	-10157
▁promise	-10158
cture	-10159
▁পড়েছি	-10160
▁ডেম	-10161
ব্দের	-10162
▁damaged	-10163
▁পড়ি	-10164
▁guid	-10165
unicip	-10166
▁commit	-10167
▁খতিয়ে	-10168
▁লন্ডন	-10169
▁প্রথমবার	-10170
▁প্রতীক	-10171
▁মাঝারি	-10172
▁বিড়	-10173
▁শেখার	-10174
▁গবেষণার	-10175
▁Amb	-10176
চ্ছেদ	-10177
▁উপার্	-10178
after	-10179
▁ক্রেডিট	-10180
▁শতাব্দীর	-10181
▁resist	-10182
▁লিগ	-10183
বাজার	-10184
▁গণনা	-10185
▁ত্রি	-10186
▁Assam	-10187
▁bill	-10188
▁trave	-10189
▁বেন	-10190
▁পারলে	-10191
▁প্রচণ্ড	-10192
▁35	-10193
▁ign	-10194
▁fruits	-10195
▁clothes	-10196
স্টা	-10197
▁ফিরতে	-10198
gery	-10199
▁ব্রাজিল	-10200
▁সংগ্রাম	-10201
▁আতঙ্ক	-10202
তীত	-10203
orial	-10204
▁Inc	-10205
▁measure	-10206
▁Times	-10207
▁okay	-10208
▁বাক	-10209
▁San	-10210
▁glass	-10211
▁ভূমিকম্প	-10212
▁blame	-10213
▁রম	-10214
▁Finally	-10215
কলাপ	-10216
round	-10217
▁rescued	-10218
পশ্চ	-10219
▁আমন্ত্রণ	-10220
থন	-10221
US	-10222
▁পেম	-10223
▁ঠাণ্ডা	-10224
▁সহায়ক	-10225
▁properly	-10226
▁rob	-10227
▁floor	-10228
▁মধ্যপ্র	-10229
দূত	-10230
▁Syed	-10231
▁কমান্ড	-10232
ান্টি	-10233
▁দারুন	-10234
▁guys	-10235
▁সৈয়	-10236
▁Lear	-10237
▁bathroom	-10238
ont	-10239
▁battery	-10240
▁‘‘	-10241
▁street	-10242
▁মালয়ে	-10243
▁হরি	-10244
▁সৎ	-10245
▁নিখুঁত	-10246
▁কাঁচ	-10247
▁ble	-10248
▁রেজিস্ট	-10249
ফিল	-10250
▁calm	-10251
▁কারাগারে	-10252
▁beat	-10253
▁শাহর	-10254
সিড	-10255
▁Mirza	-10256
▁দশকের	-10257
তিবাচক	-10258
hered	-10259
II	-10260
▁Mil	-10261
▁টার্	-10262
▁sac	-10263
antic	-10264
ancing	-10265
▁আবারো	-10266
▁resear	-10267
▁und	-10268
র্ষে	-10269
▁status	-10270
▁Ay	-10271
▁petition	-10272
▁Bihar	-10273
▁ভূমি	-10274
▁emotion	-10275
▁ঘিরে	-10276
▁Nur	-10277
▁অভ্যাস	-10278
▁ইতোমধ্যে	-10279
▁খাই	-10280
▁পরিকল্পন	-10281
6)	-10282
▁ট্যাক্স	-10283
▁invited	-10284
▁minimum	-10285
▁helpful	-10286
▁বেদ	-10287
▁কুর	-10288
ষ্টার	-10289
▁উপন্যাস	-10290
▁pand	-10291
▁গন্ধ	-10292
▁ক্লায়	-10293
তবে	-10294
▁সম্মত	-10295
▁ক্যামের	-10296
▁জব	-10297
ray	-10298
▁medium	-10299
▁Company	-10300
anmar	-10301
▁মাস্ক	-10302
▁illegal	-10303
▁বোধহয়	-10304
▁ইঙ্গিত	-10305
▁friendly	-10306
▁Power	-10307
▁সেটার	-10308
▁virt	-10309
▁tired	-10310
▁মহামার	-10311
ঙ্কের	-10312
▁সীমিত	-10313
জ্য	-10314
▁আজও	-10315
ঃপর	-10316
▁explos	-10317
edia	-10318
▁illness	-10319
▁ইমেল	-10320
▁ক্রমা	-10321
▁ben	-10322
▁apps	-10323
য়নে	-10324
arden	-10325
▁দুর্নীতি	-10326
▁ধর্মের	-10327
▁Web	-10328
াদিল	-10329
োধী	-10330
▁জ্যাক	-10331
▁রপ্ত	-10332
▁Mas	-10333
ঞ্জস্য	-10334
▁ডু	-10335
▁Dev	-10336
▁তৃণ	-10337
▁library	-10338
▁হিন্দি	-10339
১৮	-10340
ras	-10341
বার্	-10342
▁views	-10343
▁তোলার	-10344
ibilities	-10345
▁proposal	-10346
9,	-10347
▁hate	-10348
CO	-10349
▁নথি	-10350
▁feels	-10351
▁achieved	-10352
zzaman	-10353
▁Prov	-10354
▁Still	-10355
▁বড়ো	-10356
atively	-10357
▁টমেটো	-10358
▁Leg	-10359
▁উল্টো	-10360
▁moon	-10361
▁পুরানো	-10362
▁requires	-10363
▁ঠিকঠাক	-10364
▁বিপর্য	-10365
▁পদত্যাগ	-10366
▁phones	-10367
ভ্য	-10368
▁পিত	-10369
▁ক্রয়	-10370
▁sir	-10371
▁bright	-10372
▁garlic	-10373
▁fresh	-10374
▁কল্যাণ	-10375
PS	-10376
▁perhaps	-10377
িসে	-10378
▁eggs	-10379
▁update	-10380
▁accounts	-10381
▁পৃষ্ঠা	-10382
▁গাড়িতে	-10383
anguage	-10384
রাগ	-10385
▁দৈনিক	-10386
▁পূর্বা	-10387
osition	-10388
োলজি	-10389
স্ট্র	-10390
▁Mag	-10391
▁adj	-10392
▁burn	-10393
▁গর্	-10394
born	-10395
পারে	-10396
▁surprise	-10397
▁শব্দটি	-10398
▁likes	-10399
anged	-10400
▁শক্তির	-10401
▁Inter	-10402
▁AN	-10403
ঙ্গিক	-10404
▁select	-10405
ev	-10406
▁Spanish	-10407
ils	-10408
▁শিল্পের	-10409
%,	-10410
▁উদ্বোধন	-10411
rd	-10412
▁হোন	-10413
iment	-10414
বয়স্ক	-10415
▁base	-10416
▁Rajas	-10417
বার্ট	-10418
▁Bhar	-10419
▁এতটা	-10420
▁storage	-10421
▁প্ল্যান	-10422
▁Force	-10423
▁upset	-10424
▁guarant	-10425
iforn	-10426
overy	-10427
▁drop	-10428
▁Found	-10429
ষম	-10430
inations	-10431
▁Pay	-10432
▁পদ্ধতির	-10433
ellow	-10434
▁ইউজার	-10435
▁কোহ	-10436
▁মাকে	-10437
▁জয়ের	-10438
▁আধিকার	-10439
▁তারিখে	-10440
▁Taliban	-10441
▁দিচ্ছেন	-10442
▁uses	-10443
▁একান্ত	-10444
াক্স	-10445
▁ক্ষয়	-10446
▁চিকিত্সা	-10447
▁যো	-10448
▁একাউ	-10449
▁protests	-10450
্যাত্ম	-10451
▁বোল	-10452
▁আমির	-10453
ja	-10454
▁Budd	-10455
▁cust	-10456
▁প্রসেস	-10457
▁Say	-10458
▁স্বচ্ছ	-10459
▁স্ত্রীর	-10460
▁congrat	-10461
▁ইন্দোনে	-10462
▁কোর্ট	-10463
▁রয়	-10464
▁লাইফ	-10465
▁সাফল্যের	-10466
▁adop	-10467
inent	-10468
ষধ	-10469
▁ব্লগে	-10470
▁স্বার্থ	-10471
িগত	-10472
▁শাক	-10473
▁গ্রাফ	-10474
levant	-10475
▁অবলম্বন	-10476
▁নাচ	-10477
▁Es	-10478
▁Syria	-10479
▁cells	-10480
▁leaves	-10481
▁opening	-10482
▁Nar	-10483
▁বাজ	-10484
▁বাছাই	-10485
▁২০১৫	-10486
▁maximum	-10487
কাতে	-10488
▁সেরকম	-10489
▁দূরত্ব	-10490
▁স্ট্রি	-10491
▁accur	-10492
▁শুভকাম	-10493
▁বিদ্র	-10494
▁স্টেডিয়	-10495
▁হিসাব	-10496
▁drinking	-10497
▁millions	-10498
▁coach	-10499
▁রোগীর	-10500
anna	-10501
▁ca	-10502
▁সূত্রে	-10503
▁Exp	-10504
ifornia	-10505
apter	-10506
▁Sha	-10507
্যান্ডে	-10508
adium	-10509
equ	-10510
rency	-10511
▁Real	-10512
▁নরম	-10513
▁rid	-10514
ার্জি	-10515
▁wood	-10516
7,	-10517
▁strict	-10518
▁2015	-10519
▁struggle	-10520
স্ত্র	-10521
▁নেতিবাচক	-10522
রিয়া	-10523
শুর	-10524
▁বাব	-10525
▁holiday	-10526
▁অতিক্রম	-10527
▁ভিড়	-10528
▁symbol	-10529
6,	-10530
oles	-10531
▁poetry	-10532
▁ইয়র্ক	-10533
▁গল্পের	-10534
bert	-10535
apore	-10536
quiry	-10537
▁doll	-10538
▁mainly	-10539
▁Middle	-10540
▁contract	-10541
▁লু	-10542
ন্ত্রের	-10543
▁কুচি	-10544
FA	-10545
লোক	-10546
▁ইস্রায়ে	-10547
▁ঘৃণা	-10548
▁সাইটের	-10549
▁নামক	-10550
ida	-10551
▁broken	-10552
▁পুলিশকে	-10553
▁ভ্যাকসিন	-10554
▁ঘটেনি	-10555
▁Services	-10556
fall	-10557
▁শিশুরা	-10558
board	-10559
▁আইটেম	-10560
▁সায়েন্স	-10561
▁improved	-10562
▁সবথেকে	-10563
▁সবসময়ই	-10564
ilty	-10565
▁Swed	-10566
শ্রে	-10567
▁কাকে	-10568
অন	-10569
▁নয়াদিল	-10570
োর্টের	-10571
▁actions	-10572
ukh	-10573
▁কলেজের	-10574
▁মুন	-10575
আন	-10576
▁depart	-10577
▁কমিউনি	-10578
▁জগতে	-10579
▁conflict	-10580
ole	-10581
When	-10582
▁নিলাম	-10583
▁পশু	-10584
▁স্বাগ	-10585
▁অতঃপর	-10586
▁consequ	-10587
then	-10588
পরিচালক	-10589
chers	-10590
▁মেয়াদ	-10591
▁cast	-10592
▁''	-10593
▁Contin	-10594
▁decades	-10595
bar	-10596
▁আস্তে	-10597
▁পারল	-10598
▁উভয়ই	-10599
quar	-10600
▁BS	-10601
▁আশে	-10602
enn	-10603
▁IPL	-10604
▁plants	-10605
▁প্লাস্	-10606
▁Mohammed	-10607
▁হলুদ	-10608
▁উপস্থিতি	-10609
▁হেরে	-10610
▁aircraft	-10611
▁বাতাস	-10612
▁জাপানের	-10613
▁browser	-10614
▁Bat	-10615
▁কোরিয়া	-10616
▁ধন	-10617
▁showed	-10618
ানায়	-10619
ologies	-10620
▁La	-10621
▁।"	-10622
▁ন্যা	-10623
8)	-10624
▁রিজ	-10625
রিদ্র	-10626
▁lines	-10627
xygen	-10628
▁কার্যকরী	-10629
্নি	-10630
▁আদি	-10631
▁খুঁজছেন	-10632
লাতে	-10633
▁সাম্রাজ	-10634
▁kil	-10635
রোগ	-10636
▁mistakes	-10637
▁ধাক	-10638
▁প্লিজ	-10639
▁শাহরুখ	-10640
8,	-10641
▁জলে	-10642
▁কেনো	-10643
▁Myanmar	-10644
▁শনাক্ত	-10645
স্টি	-10646
▁দৃষ্ট	-10647
▁flight	-10648
▁Indones	-10649
▁দেবার	-10650
▁handed	-10651
্যু	-10652
▁রইলো	-10653
',	-10654
র্কে	-10655
▁phase	-10656
▁ফোনের	-10657
▁Anything	-10658
াসম	-10659
য়িক	-10660
▁এরূপ	-10661
▁একাউন্ট	-10662
▁2,	-10663
▁করিয়	-10664
▁ভিস	-10665
চন	-10666
▁injury	-10667
▁প্রিন্স	-10668
oned	-10669
▁দশকে	-10670
ণ্ডল	-10671
▁নিল	-10672
rag	-10673
▁alcohol	-10674
▁সল	-10675
▁প্রয়ো	-10676
▁রবিবার	-10677
▁Communic	-10678
▁elements	-10679
▁দাড়	-10680
▁Airport	-10681
izes	-10682
▁সৈয়দ	-10683
মিং	-10684
▁ডাই	-10685
▁Couldn	-10686
▁accompl	-10687
▁কামাল	-10688
▁Tel	-10689
কারে	-10690
ৃঙ্খলা	-10691
▁Blood	-10692
▁চারজন	-10693
▁মোকাবে	-10694
জো	-10695
▁Note	-10696
▁walking	-10697
▁Finance	-10698
▁হিম	-10699
▁shocked	-10700
▁tweeted	-10701
▁গাই	-10702
▁ধাপে	-10703
ximately	-10704
▁prayer	-10705
জ্জিত	-10706
▁তারই	-10707
▁মম	-10708
▁dro	-10709
▁fant	-10710
▁dedic	-10711
▁অক্সিজ	-10712
▁ডিজাই	-10713
দুর	-10714
Yes	-10715
▁লেনদ	-10716
▁প্রজেক্ট	-10717
▁calls	-10718
▁internal	-10719
▁afford	-10720
▁certific	-10721
▁পেন	-10722
▁মর্য	-10723
een	-10724
▁২০১২	-10725
▁ডির	-10726
শ্চিন্ত	-10727
নিম	-10728
▁ট্র্যা	-10729
▁জিততে	-10730
▁প্রোটিন	-10731
intend	-10732
▁River	-10733
▁সত্যই	-10734
▁বিরল	-10735
▁academ	-10736
▁straight	-10737
7)	-10738
রাতে	-10739
▁Jew	-10740
▁websites	-10741
▁Kal	-10742
▁এলাম	-10743
▁appears	-10744
▁স্বামীর	-10745
▁refuge	-10746
▁ult	-10747
জিয়াম	-10748
▁এশিয়ার	-10749
▁জাল	-10750
▁জীবিত	-10751
▁experts	-10752
▁রয়েছেঃ	-10753
mine	-10754
চার্য	-10755
▁thus	-10756
▁desire	-10757
▁km	-10758
ifted	-10759
▁নেব	-10760
▁James	-10761
▁২৬	-10762
terday	-10763
hya	-10764
▁নাক	-10765
▁banks	-10766
▁শুভকামনা	-10767
▁pros	-10768
▁explan	-10769
▁ফ্লাইট	-10770
▁courage	-10771
▁proceed	-10772
ashion	-10773
▁অধিদ	-10774
▁প্যাট	-10775
▁guilty	-10776
লাভ	-10777
▁কাপড়	-10778
▁pandemic	-10779
▁চুরি	-10780
▁বোঝায়	-10781
▁ছবিগুলো	-10782
বর্তন	-10783
aired	-10784
▁contest	-10785
▁মুহাম্মদ	-10786
▁ভ্র	-10787
▁suffer	-10788
▁গোয়েন	-10789
িতেন	-10790
▁monitor	-10791
▁শহীদ	-10792
▁deploy	-10793
▁server	-10794
▁রোগী	-10795
▁lawyer	-10796
▁planned	-10797
ipped	-10798
▁Elect	-10799
▁একত্রিত	-10800
▁বাসিন্দা	-10801
nding	-10802
▁insp	-10803
▁300	-10804
▁২০১৪	-10805
▁managed	-10806
ওল	-10807
▁signs	-10808
▁বাস্তবতা	-10809
mosp	-10810
▁পুলিস	-10811
▁সমাবে	-10812
▁Produ	-10813
পাক	-10814
▁imagine	-10815
OR	-10816
▁বন্ধুর	-10817
▁যন্ত্রণ	-10818
▁reaction	-10819
▁craz	-10820
▁bail	-10821
▁অজ্ঞ	-10822
▁আধ্যাত্ম	-10823
কাঠ	-10824
▁বাঁধ	-10825
▁annual	-10826
িফোর্	-10827
▁prove	-10828
লাইন	-10829
▁যিশু	-10830
ky	-10831
▁মস্তিষ্	-10832
▁Greek	-10833
▁Watch	-10834
▁টাইপ	-10835
▁finish	-10836
▁চুক্তির	-10837
শিয়ায়	-10838
▁Shar	-10839
▁facing	-10840
▁conven	-10841
▁করিবার	-10842
▁হ্যার	-10843
▁দেখবেন	-10844
▁রক্ষণ	-10845
▁ক্রমাগত	-10846
▁Bach	-10847
▁grad	-10848
▁sales	-10849
▁হাতের	-10850
▁Put	-10851
▁hadn	-10852
দেশে	-10853
hand	-10854
▁বাজেট	-10855
▁বউ	-10856
র্কের	-10857
alm	-10858
▁manager	-10859
azar	-10860
▁সাইন	-10861
▁Nas	-10862
▁রাস্তার	-10863
▁Jud	-10864
▁করিব	-10865
▁score	-10866
▁শুনানি	-10867
জল	-10868
জনিত	-10869
▁আবুল	-10870
▁বোমা	-10871
▁quant	-10872
িফোর্নি	-10873
▁mountain	-10874
▁জনসাধারণ	-10875
কতা	-10876
▁occup	-10877
তোম	-10878
arian	-10879
▁হতাহত	-10880
actions	-10881
োনি	-10882
▁দশক	-10883
▁ব্লক	-10884
▁hyd	-10885
uration	-10886
▁নীরব	-10887
ris	-10888
▁Sea	-10889
▁আনার	-10890
▁উপলব্ধি	-10891
▁Isn	-10892
▁সমিত	-10893
▁remem	-10894
াইয়া	-10895
▁বোর্ডের	-10896
▁এরপরই	-10897
রিটি	-10898
▁মিউজিক	-10899
▁সম্মুখীন	-10900
▁ইল	-10901
fast	-10902
▁শাখা	-10903
▁studying	-10904
▁although	-10905
how	-10906
▁পরিশোধ	-10907
▁awarded	-10908
▁বোঝার	-10909
▁গর্ভবতী	-10910
raf	-10911
▁তালে	-10912
▁সঙ্ক	-10913
ita	-10914
▁গ্রুপের	-10915
▁এখানকার	-10916
-3	-10917
▁পরা	-10918
▁অর্জনের	-10919
▁identity	-10920
▁manage	-10921
ভিল	-10922
▁bought	-10923
▁পরিমাপ	-10924
▁refused	-10925
▁২৮	-10926
▁lucky	-10927
iring	-10928
▁theory	-10929
▁Friend	-10930
▁ছুটির	-10931
BS	-10932
▁dia	-10933
▁সংকট	-10934
▁নিখোঁ	-10935
eting	-10936
▁পেমেন্ট	-10937
▁মেম	-10938
▁manner	-10939
▁younger	-10940
▁theme	-10941
▁Khaled	-10942
শের	-10943
▁Five	-10944
▁জেম	-10945
▁Find	-10946
▁piece	-10947
▁আছ	-10948
▁teaching	-10949
99	-10950
▁custody	-10951
▁compared	-10952
বিন্দ	-10953
ON	-10954
▁Bad	-10955
icted	-10956
▁load	-10957
শান্ত	-10958
▁সৌর	-10959
vention	-10960
▁singer	-10961
▁PC	-10962
▁প্রকাশের	-10963
▁philosop	-10964
▁আধিকারিক	-10965
▁smell	-10966
rep	-10967
ালাম	-10968
▁princi	-10969
▁Pad	-10970
▁উল্ল	-10971
▁কানাডা	-10972
▁reduced	-10973
্রিয়াটি	-10974
হলে	-10975
এসসি	-10976
▁একট	-10977
▁অপসারণ	-10978
▁গোষ্ঠী	-10979
▁winning	-10980
11	-10981
▁নবী	-10982
▁ফরম	-10983
ears	-10984
▁schem	-10985
esters	-10986
lus	-10987
▁Aren	-10988
▁locals	-10989
▁বলিউডের	-10990
▁হতেই	-10991
▁কড়া	-10992
▁মুগ্ধ	-10993
▁চালানোর	-10994
িত্য	-10995
▁crop	-10996
▁Kamal	-10997
▁যানবাহন	-10998
▁উদ্ভিদ	-10999
▁প্রকাশ্য	-11000
▁1:	-11001
মর	-11002
▁failure	-11003
▁পুরুষের	-11004
▁গ্লোব	-11005
▁সৈন্য	-11006
▁Mich	-11007
পার্ট	-11008
▁বন্ধুরা	-11009
▁Ap	-11010
শাল	-11011
ua	-11012
▁সংগঠনের	-11013
▁nine	-11014
▁করিল	-11015
▁স্বে	-11016
▁Games	-11017
▁ongoing	-11018
▁করছ	-11019
▁worst	-11020
▁domestic	-11021
ঙ্গাল	-11022
▁সম্পাদ	-11023
কন	-11024
yal	-11025
হ্যাঁ	-11026
▁weapons	-11027
▁claims	-11028
▁recorded	-11029
▁অফার	-11030
rim	-11031
▁লন্ডনে	-11032
▁লোকেদের	-11033
▁সার্ভার	-11034
So	-11035
ero	-11036
▁Aj	-11037
▁ধনী	-11038
শিল্পী	-11039
▁founded	-11040
ael	-11041
▁লাইভ	-11042
▁diabetes	-11043
▁মনোভাব	-11044
iency	-11045
▁repeated	-11046
▁neither	-11047
)-	-11048
▁২০১৬	-11049
venue	-11050
▁band	-11051
▁Actor	-11052
▁কেন্দ্রে	-11053
▁mostly	-11054
▁দূষণ	-11055
▁Special	-11056
বন্ধু	-11057
▁কন্ট্র	-11058
▁vitamin	-11059
▁ment	-11060
▁অজানা	-11061
▁সালমান	-11062
▁সৃজন	-11063
▁সদস্যের	-11064
▁কৃষক	-11065
▁psych	-11066
▁ঘটনাস্থল	-11067
গঠনিক	-11068
▁%	-11069
▁bowl	-11070
▁পাগল	-11071
▁exciting	-11072
▁delay	-11073
▁classes	-11074
▁bridge	-11075
▁বাড়তি	-11076
▁যতক্ষণ	-11077
▁double	-11078
▁sport	-11079
▁ঘুমিয়ে	-11080
DP	-11081
Don	-11082
▁anx	-11083
থের	-11084
aced	-11085
িস্টার	-11086
▁der	-11087
▁attacked	-11088
▁শরণ	-11089
▁প্রদানের	-11090
▁তদন্তে	-11091
▁মুক্তির	-11092
সিয়াম	-11093
▁relax	-11094
▁Control	-11095
ারী	-11096
▁করণ	-11097
▁OD	-11098
▁মির্	-11099
দানি	-11100
▁Deep	-11101
▁গভর্ন	-11102
!!	-11103
▁পেলেন	-11104
▁সই	-11105
40	-11106
▁বেলায়	-11107
▁Malaysia	-11108
াবো	-11109
েত্র	-11110
verse	-11111
▁45	-11112
▁স্টু	-11113
▁পঞ্চম	-11114
▁দরিদ্র	-11115
▁Supp	-11116
▁মরদেহ	-11117
▁pil	-11118
▁analysis	-11119
▁উত্তেজনা	-11120
োনো	-11121
▁উপকূল	-11122
▁মুর	-11123
▁টেন	-11124
আজ	-11125
▁flag	-11126
▁sight	-11127
▁Win	-11128
শিপ	-11129
▁surface	-11130
ল্যান্ডের	-11131
▁bott	-11132
▁পরিষদ	-11133
▁বাড়বে	-11134
▁যাচ্ছিল	-11135
▁radio	-11136
ander	-11137
rog	-11138
▁Jack	-11139
নামূলক	-11140
80	-11141
প্রধান	-11142
▁এমনটি	-11143
2)	-11144
▁Kerala	-11145
▁planet	-11146
▁Civil	-11147
ক্	-11148
▁CP	-11149
▁roles	-11150
▁বিদেশী	-11151
▁Remember	-11152
aks	-11153
▁টিউ	-11154
▁Govern	-11155
▁(2)	-11156
▁জেরে	-11157
▁সেতু	-11158
ায়নের	-11159
▁awards	-11160
▁দেখাতে	-11161
▁ডোম	-11162
▁রিল	-11163
ilipp	-11164
▁Administ	-11165
▁চিৎকার	-11166
▁ভাষণ	-11167
▁মাটিতে	-11168
atically	-11169
▁দৈর্ঘ	-11170
ifying	-11171
rian	-11172
▁Prin	-11173
▁Hindus	-11174
▁সঞ্চাল	-11175
ভোকেট	-11176
▁ব্যতীত	-11177
▁আইস	-11178
▁আখ	-11179
▁everyday	-11180
▁TH	-11181
▁fort	-11182
রুম	-11183
▁গ্যাল	-11184
▁belief	-11185
▁Sol	-11186
▁Stand	-11187
ieve	-11188
▁emp	-11189
▁লকড	-11190
▁legisl	-11191
abh	-11192
▁quar	-11193
▁বিদেশি	-11194
বস্থা	-11195
▁কর্মসং	-11196
▁keeping	-11197
bum	-11198
ামরিক	-11199
▁factory	-11200
An	-11201
▁কহ	-11202
aving	-11203
▁দ্বি	-11204
পুরের	-11205
▁probe	-11206
▁onion	-11207
▁আরে	-11208
▁ship	-11209
ilater	-11210
▁nations	-11211
▁কমিয়ে	-11212
▁মাটি	-11213
▁schol	-11214
▁detailed	-11215
জাহ	-11216
▁চুলের	-11217
▁প্রাপ	-11218
▁বন্দুক	-11219
▁সংরক্ষিত	-11220
▁চয়ন	-11221
__	-11222
▁সারাদিন	-11223
well	-11224
▁তরফে	-11225
▁মাধ্যমিক	-11226
▁সময়টা	-11227
্রেট	-11228
▁2010	-11229
▁গৃহীত	-11230
▁পরিবারকে	-11231
▁এবারের	-11232
▁studied	-11233
▁Muj	-11234
▁organis	-11235
টোর	-11236
▁ক্ষোভ	-11237
▁birds	-11238
▁factors	-11239
.-	-11240
uru	-11241
ford	-11242
idden	-11243
▁সবজি	-11244
▁সাথেই	-11245
▁acid	-11246
▁replied	-11247
▁কর্ণ	-11248
▁নিখোঁজ	-11249
োধনী	-11250
▁Tom	-11251
▁ধূম	-11252
▁ঢুকে	-11253
aint	-11254
▁bound	-11255
▁দম্পতি	-11256
▁worship	-11257
▁মুল	-11258
▁Sush	-11259
”.	-11260
▁System	-11261
▁Muk	-11262
▁Think	-11263
▁নেতারা	-11264
▁তু	-11265
▁Western	-11266
▁tonight	-11267
EC	-11268
▁ends	-11269
▁প্রদত্ত	-11270
fare	-11271
▁mad	-11272
সভায়	-11273
▁selected	-11274
যোগী	-11275
▁dress	-11276
▁protein	-11277
▁Lim	-11278
▁Men	-11279
উদ্দিন	-11280
▁বীর	-11281
▁actual	-11282
▁ঘাট	-11283
rack	-11284
▁hero	-11285
▁চাঁদ	-11286
▁kn	-11287
▁বিপণ	-11288
▁driving	-11289
বেলা	-11290
▁oxygen	-11291
লাই	-11292
▁bench	-11293
:5	-11294
▁poem	-11295
▁এসো	-11296
▁overall	-11297
bre	-11298
▁Comple	-11299
▁হেন	-11300
▁হারা	-11301
▁প্রেক্ষ	-11302
▁অলিম্পিক	-11303
▁winners	-11304
▁Give	-11305
nataka	-11306
HO	-11307
▁সমাধ	-11308
েশনে	-11309
▁ডেভিড	-11310
▁ব্রিট	-11311
▁Consider	-11312
▁Bah	-11313
▁Perhaps	-11314
টনে	-11315
▁Rights	-11316
▁Tag	-11317
▁গ্যার	-11318
▁পিছিয়ে	-11319
চয়	-11320
▁owner	-11321
পুট	-11322
▁যোগদান	-11323
্যানিশ	-11324
প্তরের	-11325
▁স্তরের	-11326
▁laughed	-11327
▁হ্যান্ড	-11328
ommended	-11329
ূন	-11330
▁সাংসদ	-11331
▁হোটেলে	-11332
তান	-11333
▁format	-11334
▁seized	-11335
▁কবির	-11336
▁Senior	-11337
বৃদ্ধ	-11338
▁প্রোডাক	-11339
▁2014	-11340
▁ফাইনালে	-11341
uh	-11342
▁diplom	-11343
At	-11344
▁Plan	-11345
▁২০১১	-11346
▁ফিচার	-11347
▁বিল্ডিং	-11348
▁বিদায়	-11349
মেয়ে	-11350
▁ভালভাবে	-11351
For	-11352
ica	-11353
▁ran	-11354
প্রথম	-11355
▁crazy	-11356
▁ভয়ঙ্কর	-11357
বার্তা	-11358
▁regret	-11359
▁বড়ই	-11360
ঞ্জের	-11361
▁Awards	-11362
▁ইউরোপে	-11363
▁যাহা	-11364
▁বেঞ্চ	-11365
ula	-11366
▁shop	-11367
▁atmosp	-11368
▁ল্যাপ	-11369
▁fled	-11370
▁ফাউন্ড	-11371
১০	-11372
▁টো	-11373
▁কোরিয়ার	-11374
স্টের	-11375
▁height	-11376
under	-11377
▁একজনের	-11378
ঞ্জে	-11379
▁upcoming	-11380
▁flu	-11381
▁পতা	-11382
▁ক্রমশ	-11383
:0	-11384
▁Want	-11385
▁route	-11386
▁Bal	-11387
▁exchange	-11388
▁পুরষ্কার	-11389
কটি	-11390
▁মিথ্য	-11391
ানিকভাবে	-11392
iff	-11393
▁কর্পোর	-11394
▁আলোচনায়	-11395
ধারন	-11396
▁রুশ	-11397
▁graph	-11398
▁archite	-11399
▁বন্দর	-11400
▁নিরাপদে	-11401
▁catch	-11402
▁মেয়েটি	-11403
yn	-11404
▁Lat	-11405
▁সমাজে	-11406
▁asleep	-11407
▁ব্ল্যাক	-11408
▁বিধি	-11409
▁Amazon	-11410
▁193	-11411
র্ধ্ব	-11412
oking	-11413
মো	-11414
▁Sadar	-11415
oph	-11416
▁writ	-11417
▁২০১৩	-11418
▁risks	-11419
▁191	-11420
কেলে	-11421
Al	-11422
▁থিম	-11423
▁Check	-11424
▁Earlier	-11425
টিফি	-11426
urb	-11427
▁প্রশ্নঃ	-11428
▁আসন্ন	-11429
▁সার্চ	-11430
▁গাঁ	-11431
▁স্পেস	-11432
▁Cabinet	-11433
▁calling	-11434
▁prepare	-11435
াণিত	-11436
▁dies	-11437
▁cancell	-11438
andhu	-11439
ladeshi	-11440
▁Que	-11441
▁আবেদনের	-11442
ার্ভ	-11443
▁Out	-11444
▁পরমাণ	-11445
Ab	-11446
ক্ষেপে	-11447
▁বুঝিতে	-11448
▁এতেই	-11449
ahi	-11450
▁টানা	-11451
▁weren	-11452
urer	-11453
বিন	-11454
স্থল	-11455
▁murd	-11456
▁ক্ষতিকর	-11457
ানু	-11458
▁আওয়াজ	-11459
▁iOS	-11460
▁বিধানসভা	-11461
িষ	-11462
▁Center	-11463
▁smiled	-11464
▁solved	-11465
▁গ্রীষ্ম	-11466
▁Mam	-11467
▁করাই	-11468
ato	-11469
▁beyond	-11470
▁rising	-11471
▁Ron	-11472
▁বার্	-11473
▁Abdullah	-11474
িবেশ	-11475
▁walked	-11476
▁রক্তচাপ	-11477
▁২৭	-11478
▁জেগে	-11479
সম্যান	-11480
▁church	-11481
▁wild	-11482
▁Girl	-11483
▁covered	-11484
▁storm	-11485
▁গন্তব্য	-11486
▁relevant	-11487
▁অনেকগুলো	-11488
▁bear	-11489
alled	-11490
▁ওপরে	-11491
▁লঙ্ঘন	-11492
▁referred	-11493
▁Name	-11494
▁YOU	-11495
ত্তির	-11496
▁কারখানা	-11497
▁ইয়ে	-11498
▁লঞ্চ	-11499
▁valid	-11500
▁আকারের	-11501
▁মনোনীত	-11502
▁সৃজনশীল	-11503
▁identify	-11504
কেরা	-11505
▁মদ	-11506
▁অনেকটাই	-11507
▁বুক	-11508
▁নেট	-11509
ব্লিউ	-11510
▁vital	-11511
asp	-11512
EA	-11513
বাম	-11514
▁ঝামেলা	-11515
▁স্তরে	-11516
র্দিষ্ট	-11517
▁নেয়ার	-11518
▁চারপাশে	-11519
▁calc	-11520
▁জাদু	-11521
▁মহানগর	-11522
▁অনেকদিন	-11523
▁ভালবাসে	-11524
▁সশ	-11525
▁বিনোদন	-11526
▁স্ক্রিন	-11527
▁criminal	-11528
▁কর্মীরা	-11529
দারি	-11530
সভাপতি	-11531
ograp	-11532
ইংরে	-11533
▁rescue	-11534
▁কাস্টম	-11535
▁Sen	-11536
▁রোধ	-11537
inate	-11538
▁ক্ষত	-11539
▁করায়	-11540
▁শব্দের	-11541
vernments	-11542
▁analy	-11543
▁গাছের	-11544
▁Talk	-11545
▁আয়ের	-11546
▁০	-11547
▁মঞ্চ	-11548
▁বাড়ানোর	-11549
▁প্ৰ	-11550
▁পাঞ্জাব	-11551
▁খেলাধ	-11552
▁অহ	-11553
▁জীবনকে	-11554
▁Station	-11555
▁কূ	-11556
▁সবটাই	-11557
বাণ	-11558
ৃতা	-11559
ocate	-11560
▁তৃণমূল	-11561
▁Aut	-11562
▁ডেন	-11563
▁দুটোই	-11564
▁bigger	-11565
দো	-11566
ira	-11567
▁শপথ	-11568
▁butter	-11569
ানার	-11570
▁Right	-11571
▁infrast	-11572
ধর্ম	-11573
▁আপলোড	-11574
▁northern	-11575
▁বলেছিলাম	-11576
▁চলছিল	-11577
বনের	-11578
irt	-11579
▁আলোর	-11580
▁সাক্ষাৎ	-11581
বিধ	-11582
ilateral	-11583
▁Tri	-11584
▁উপার্জন	-11585
▁কুল	-11586
St	-11587
▁রোম	-11588
▁staying	-11589
celona	-11590
ervation	-11591
▁স্বেচ্ছ	-11592
াসহ	-11593
ora	-11594
▁Tour	-11595
▁সেমি	-11596
▁অনুপ্রের	-11597
▁অপশন	-11598
oughly	-11599
কলা	-11600
▁ওঁর	-11601
▁Ja	-11602
শো	-11603
▁inspir	-11604
▁বিপ্লব	-11605
▁Progr	-11606
াইম	-11607
▁cooking	-11608
ফু	-11609
শান	-11610
osis	-11611
▁CBI	-11612
▁সাঁ	-11613
▁সাউ	-11614
▁পায়নি	-11615
▁Media	-11616
▁স্যাম	-11617
▁করছিলাম	-11618
▁existing	-11619
▁frust	-11620
▁ওয়াস	-11621
▁বৌদ্ধ	-11622
▁Blue	-11623
▁master	-11624
▁জর্জ	-11625
night	-11626
▁চীনে	-11627
▁তারাও	-11628
mm	-11629
▁নোবেল	-11630
▁circum	-11631
ওর	-11632
▁বিদ্রোহ	-11633
▁সুন্দরী	-11634
intendent	-11635
জী	-11636
▁সেও	-11637
▁WhatsApp	-11638
va	-11639
▁অন্	-11640
্যো	-11641
▁বিজনে	-11642
▁তাৎক্ষণ	-11643
▁mechan	-11644
▁শাম	-11645
▁Press	-11646
ীয়া	-11647
▁অডিও	-11648
▁ভদ্র	-11649
▁ভিতর	-11650
▁ড্রাগ	-11651
▁মানুষই	-11652
▁ভরসা	-11653
▁দিয়েই	-11654
▁তারপরই	-11655
quarters	-11656
▁সম্মতি	-11657
▁পাল্টে	-11658
িদের	-11659
▁ওভার	-11660
▁grown	-11661
IT	-11662
▁কাঠামো	-11663
▁Thus	-11664
▁নিয়েও	-11665
▁পদ্ধতিতে	-11666
দণ্ড	-11667
▁tables	-11668
োতা	-11669
obile	-11670
▁উইলিয়াম	-11671
▁van	-11672
▁ইসলামী	-11673
▁অভিষ	-11674
মেন	-11675
▁snow	-11676
মল	-11677
place	-11678
▁পরিবেশন	-11679
▁ভার্চ	-11680
▁202	-11681
portation	-11682
▁সংক্র	-11683
▁Bangab	-11684
▁stored	-11685
য়াত	-11686
শালী	-11687
▁adults	-11688
▁নিই	-11689
▁noted	-11690
▁southern	-11691
▁Var	-11692
▁ভারি	-11693
▁যুগে	-11694
▁benefic	-11695
▁Computer	-11696
▁Dub	-11697
▁condem	-11698
▁ব্লু	-11699
▁peaceful	-11700
▁values	-11701
hens	-11702
▁2012	-11703
▁রোগীদের	-11704
▁pages	-11705
wal	-11706
▁juice	-11707
▁দুজনই	-11708
▁arrange	-11709
▁BBC	-11710
▁বেলা	-11711
▁আলাইহি	-11712
▁কোনোদিন	-11713
▁ফাইনাল	-11714
▁রিট	-11715
▁Palest	-11716
"")	-11717
▁জানালেন	-11718
▁পরিবারে	-11719
পতির	-11720
achel	-11721
বর্ধমান	-11722
▁অসহ	-11723
চ্ছিলাম	-11724
▁স্পেন	-11725
▁handle	-11726
নিম্ন	-11727
▁বার্ত	-11728
▁Joint	-11729
▁Ann	-11730
▁taste	-11731
▁কপ	-11732
etic	-11733
▁লোকটা	-11734
োরা	-11735
▁২০১৭	-11736
▁Peace	-11737
▁estim	-11738
ডিজ	-11739
▁পোল	-11740
▁ash	-11741
▁occurs	-11742
▁western	-11743
jun	-11744
▁২৯	-11745
▁rice	-11746
▁sale	-11747
▁ওয়ার	-11748
▁Bachchan	-11749
য়েই	-11750
ented	-11751
▁পাইল	-11752
▁Prince	-11753
rene	-11754
▁শূন্য	-11755
▁সাংগঠনিক	-11756
▁মশ	-11757
▁Philipp	-11758
▁টেকন	-11759
হের	-11760
▁uncle	-11761
▁trading	-11762
▁বিরত	-11763
▁exhib	-11764
▁Wik	-11765
▁Defence	-11766
iden	-11767
itial	-11768
▁topic	-11769
উর	-11770
▁sisters	-11771
▁সিনেমায়	-11772
▁narr	-11773
▁liber	-11774
▁album	-11775
▁attract	-11776
▁mosque	-11777
সঙ্গ	-11778
▁কোহলি	-11779
্বস্ত	-11780
▁শীর্ষে	-11781
▁ধাত	-11782
াকৃত	-11783
▁Journal	-11784
ারণা	-11785
▁বাড়ী	-11786
▁rape	-11787
▁মোতায়	-11788
▁দিবেন	-11789
▁ফটোগ্রাফ	-11790
▁সহযোগী	-11791
plemented	-11792
▁elder	-11793
▁escape	-11794
greg	-11795
▁forced	-11796
▁meetings	-11797
usal	-11798
▁Mur	-11799
▁Ty	-11800
▁আজি	-11801
▁বচ্চ	-11802
▁লিমিটেড	-11803
▁দেহের	-11804
▁button	-11805
স্থানীয়	-11806
▁অধীন	-11807
▁articles	-11808
sp	-11809
fin	-11810
▁মূ	-11811
▁ড্রাই	-11812
▁কনফ	-11813
▁সবারই	-11814
▁হয়না	-11815
▁sleeping	-11816
▁অভিযোগের	-11817
য্য	-11818
▁breath	-11819
ক্ষমতা	-11820
▁attra	-11821
▁চালাতে	-11822
▁বাড়ানো	-11823
▁ছাত্রী	-11824
▁যেত	-11825
▁বার্স	-11826
▁নিন্দা	-11827
▁মৃতদেহ	-11828
▁সাক্ষ্য	-11829
oting	-11830
▁দিয়া	-11831
েননি	-11832
ার্কের	-11833
▁charged	-11834
▁থিয়ে	-11835
▁links	-11836
AP	-11837
▁alert	-11838
▁পরাজিত	-11839
▁ভালোবাসে	-11840
তুল	-11841
িসির	-11842
▁Cre	-11843
▁রোগে	-11844
▁Build	-11845
▁deliver	-11846
▁৬০	-11847
▁nearby	-11848
▁Rad	-11849
▁Main	-11850
▁ঠাক	-11851
▁মিয়া	-11852
▁গেমস	-11853
▁লিঙ্গ	-11854
▁উপাস	-11855
▁উপস্থা	-11856
▁পত	-11857
▁Cov	-11858
▁compr	-11859
▁মেসে	-11860
▁ইমরান	-11861
▁মেয়েরা	-11862
▁অগ্ন	-11863
▁tourism	-11864
▁anger	-11865
▁নাম্বার	-11866
CCI	-11867
ভূম	-11868
▁পত্রিকা	-11869
▁reliable	-11870
TML	-11871
▁Rukh	-11872
▁উঁচ	-11873
▁plastic	-11874
▁চিনতে	-11875
▁তেমনই	-11876
▁মিয়ান	-11877
ঘু	-11878
▁shops	-11879
▁প্রবণ	-11880
rome	-11881
বস্তু	-11882
▁somebody	-11883
icians	-11884
▁ফিন	-11885
▁প্যাকেজ	-11886
▁Tem	-11887
500	-11888
▁Khaleda	-11889
্যোগ	-11890
▁করছিলেন	-11891
▁urged	-11892
▁Sudden	-11893
▁দলকে	-11894
ji	-11895
▁পর্যট	-11896
▁ভারসাম	-11897
▁advance	-11898
▁চলার	-11899
▁নিচ্ছে	-11900
▁টে	-11901
Bang	-11902
enses	-11903
gir	-11904
ুলা	-11905
▁Sidd	-11906
▁বিনা	-11907
▁talent	-11908
alian	-11909
▁6.	-11910
▁অবস	-11911
▁মুদ্রা	-11912
ographs	-11913
স্থানের	-11914
▁নির্ণ	-11915
▁ভবিষ্যত	-11916
▁gather	-11917
▁মনি	-11918
্রিপ্ট	-11919
▁পায়ে	-11920
▁ফ্যা	-11921
:00	-11922
▁Peter	-11923
▁ইসলামের	-11924
ন্দরে	-11925
bered	-11926
inema	-11927
9)	-11928
▁Shahid	-11929
cut	-11930
ini	-11931
ওনা	-11932
মনে	-11933
▁ভাজ	-11934
ounds	-11935
▁জন্	-11936
▁দেননি	-11937
▁actors	-11938
▁realize	-11939
▁Ber	-11940
▁মির্জা	-11941
hedu	-11942
▁Mahb	-11943
▁২০১০	-11944
ইয়া	-11945
▁editor	-11946
▁listed	-11947
▁Prize	-11948
▁capable	-11949
▁visible	-11950
▁producer	-11951
▁SS	-11952
llor	-11953
হার্য	-11954
▁innov	-11955
▁Common	-11956
▁আসছি	-11957
▁মানবিক	-11958
,,	-11959
▁bot	-11960
▁রাখবে	-11961
▁সন	-11962
▁পেট্র	-11963
▁দো	-11964
▁খানিকটা	-11965
▁মনোনয়ন	-11966
▁Argent	-11967
▁bull	-11968
▁era	-11969
▁অবন	-11970
▁delight	-11971
comm	-11972
▁dinner	-11973
▁এলেন	-11974
▁রাশিয়ান	-11975
org	-11976
শ্বিক	-11977
▁Whe	-11978
▁pull	-11979
▁creation	-11980
▁fill	-11981
iversary	-11982
▁ICC	-11983
▁package	-11984
টাইন	-11985
▁Turkish	-11986
▁confirm	-11987
▁কতদিন	-11988
iny	-11989
্রিপ	-11990
▁larger	-11991
▁উঠবে	-11992
▁wealth	-11993
ড়ির	-11994
▁tested	-11995
প্রকাশ	-11996
▁exists	-11997
▁জিম	-11998
▁কোর্টের	-11999
▁guide	-12000
▁লাগিয়ে	-12001
▁assembly	-12002
▁Kabir	-12003
▁Independ	-12004
ীর্বাদ	-12005
▁granted	-12006
▁এড়াতে	-12007
খণ্ড	-12008
▁কারনে	-12009
▁ওব	-12010
▁Nobel	-12011
▁obtained	-12012
▁Alex	-12013
▁যাবতীয়	-12014
▁সংজ্ঞা	-12015
▁কয়েকবার	-12016
▁Polit	-12017
▁নৃত্য	-12018
▁register	-12019
▁মন্ত্রিস	-12020
▁surgery	-12021
চী	-12022
text	-12023
▁Along	-12024
▁আত্মা	-12025
▁গ্লাস	-12026
hedule	-12027
▁magaz	-12028
▁expert	-12029
▁filled	-12030
▁এসবের	-12031
▁অবস্থানে	-12032
▁ফেরার	-12033
On	-12034
▁Prem	-12035
নাকে	-12036
▁wounded	-12037
▁নিহতদের	-12038
▁চিঠ	-12039
heast	-12040
▁ধীর	-12041
▁প্রশংস	-12042
▁প্রজাতির	-12043
▁map	-12044
▁গাইড	-12045
▁citizen	-12046
ining	-12047
olitan	-12048
▁ব্যাবহার	-12049
▁রেড	-12050
off	-12051
olic	-12052
▁সন্ধ্যা	-12053
▁province	-12054
▁helping	-12055
▁৮০	-12056
▁faster	-12057
rad	-12058
ুনে	-12059
▁ভো	-12060
▁male	-12061
▁mere	-12062
inst	-12063
▁লিন	-12064
▁bomb	-12065
▁applied	-12066
▁empt	-12067
▁figh	-12068
▁Music	-12069
assador	-12070
▁কূটন	-12071
▁Jah	-12072
▁Messi	-12073
▁দোয়া	-12074
▁মুজি	-12075
▁Local	-12076
▁OK	-12077
onom	-12078
পন্থ	-12079
▁জীবনযাপন	-12080
▁fixed	-12081
িংয়ের	-12082
▁sounds	-12083
isha	-12084
▁Fakh	-12085
▁পাথর	-12086
▁yours	-12087
hra	-12088
্যাশ	-12089
▁bra	-12090
▁হননি	-12091
▁George	-12092
ম্মদ	-12093
▁ঘন্টার	-12094
wa	-12095
oices	-12096
▁mut	-12097
sman	-12098
▁survive	-12099
▁Data	-12100
▁Vis	-12101
▁collabor	-12102
▁সুস্বাদু	-12103
gend	-12104
Press	-12105
ষ্য	-12106
▁নুর	-12107
▁ভ্যান	-12108
▁স্বভাব	-12109
▁7.	-12110
▁ঘোষণ	-12111
েন্ডার	-12112
▁Suddenly	-12113
লেস	-12114
পুরুষ	-12115
▁ভূমিকায়	-12116
▁distin	-12117
AC	-12118
▁অস্থ	-12119
▁দিবে	-12120
▁সত্যতা	-12121
▁লেখেন	-12122
▁আয়ার	-12123
▁Cy	-12124
▁ইস্যু	-12125
▁regions	-12126
▁USB	-12127
ashes	-12128
kh	-12129
▁proved	-12130
▁বিপরীতে	-12131
▁Language	-12132
bir	-12133
▁minute	-12134
১৫	-12135
▁উৎপাদ	-12136
▁প্রোট	-12137
▁বুল	-12138
Every	-12139
মেয়াদী	-12140
▁আশীর্বাদ	-12141
▁পড়লাম	-12142
▁CEO	-12143
▁হাউস	-12144
▁মোস্ত	-12145
▁supports	-12146
▁চমক	-12147
▁স্টক	-12148
▁দিল্লিতে	-12149
▁Gaz	-12150
▁আর্জেন	-12151
▁শিরোনাম	-12152
▁তাহারা	-12153
▁পেছ	-12154
▁vision	-12155
▁বাসা	-12156
▁রক্তের	-12157
▁চাওয়া	-12158
বেদনা	-12159
▁ভ্রমণের	-12160
addy	-12161
▁আসছেন	-12162
▁windows	-12163
▁প্রতিফল	-12164
হাই	-12165
ছিলে	-12166
▁চার্	-12167
▁ইসলামিক	-12168
law	-12169
what	-12170
▁Cost	-12171
▁খালেদা	-12172
▁পাল্টা	-12173
▁ডেমোক	-12174
▁কেঁ	-12175
▁tells	-12176
▁()	-12177
▁hundreds	-12178
▁Global	-12179
▁উনার	-12180
▁extended	-12181
ৃত্ব	-12182
▁স্নাত	-12183
ima	-12184
▁যেগুলো	-12185
▁scri	-12186
ানক	-12187
▁তুরস্কের	-12188
▁ভাবিনি	-12189
▁earthqu	-12190
iox	-12191
▁ঘোষ	-12192
▁purposes	-12193
▁garden	-12194
▁ড্রাইভার	-12195
rative	-12196
▁HD	-12197
▁eth	-12198
কিছুর	-12199
▁Conf	-12200
▁ভগবান	-12201
▁বাকী	-12202
▁ওয়াল	-12203
▁regional	-12204
▁Nor	-12205
▁HTML	-12206
▁museum	-12207
1)	-12208
▁owners	-12209
▁forgive	-12210
▁reform	-12211
fl	-12212
dict	-12213
▁Roh	-12214
▁বিচারক	-12215
শ্রয়	-12216
▁stable	-12217
▁পরপর	-12218
orders	-12219
ামন্ত্রী	-12220
▁সর্বত্র	-12221
▁Question	-12222
▁trend	-12223
▁thankful	-12224
▁করুণ	-12225
▁গেট	-12226
agers	-12227
▁বিদেশে	-12228
▁চমকে	-12229
▁factor	-12230
▁পর্যায়	-12231
োসিয়েশন	-12232
গীর	-12233
▁স্পেশ	-12234
▁Portug	-12235
▁tourists	-12236
▁ব্যান্ড	-12237
▁অর্থের	-12238
inder	-12239
12	-12240
কাব	-12241
ইংরেজি	-12242
▁ছবিটা	-12243
bas	-12244
▁soil	-12245
▁Bring	-12246
▁cards	-12247
▁stands	-12248
▁fields	-12249
▁হবো	-12250
▁প্রধানত	-12251
▁রণবীর	-12252
▁স্বর্ণ	-12253
▁পারছিলাম	-12254
▁সভ্য	-12255
▁বিজনেস	-12256
▁consists	-12257
▁grew	-12258
oti	-12259
জরে	-12260
▁ideal	-12261
▁লিও	-12262
কারীকে	-12263
▁তহবিল	-12264
▁delivery	-12265
▁Mary	-12266
▁2013	-12267
▁element	-12268
▁license	-12269
রাল	-12270
স্তক	-12271
▁holds	-12272
▁পার্লাম	-12273
▁স্বাগতম	-12274
▁কতটুকু	-12275
▁রেলওয়ে	-12276
ুলের	-12277
▁shifted	-12278
পুরে	-12279
▁আনন্দে	-12280
atell	-12281
▁সাবধানে	-12282
▁realized	-12283
্রেস	-12284
▁এটিও	-12285
ivered	-12286
▁humanity	-12287
▁ইংরেজিতে	-12288
▁Ka	-12289
▁Dif	-12290
▁গণিত	-12291
▁পেজ	-12292
alu	-12293
imb	-12294
ংকং	-12295
▁Hong	-12296
▁আসবেন	-12297
▁প্রাইভ	-12298
১১	-12299
▁শীতল	-12300
▁Dut	-12301
▁মাহবু	-12302
▁ভারসাম্য	-12303
▁delic	-12304
▁উচ্চতা	-12305
▁labor	-12306
▁Hot	-12307
▁ib	-12308
ফর	-12309
tion	-12310
অব	-12311
▁মায়	-12312
▁সংজ্ঞ	-12313
▁holy	-12314
▁মঞ্জ	-12315
▁Had	-12316
▁সিকিউ	-12317
্থা	-12318
▁রাউন্ড	-12319
▁slightly	-12320
▁morgue	-12321
▁constitu	-12322
▁মোতায়েন	-12323
tered	-12324
▁টুকরো	-12325
▁আইডিয়া	-12326
▁script	-12327
▁পারা	-12328
▁এতদিন	-12329
▁পয়সা	-12330
▁দুইজন	-12331
▁কান্না	-12332
পূ	-12333
▁Pand	-12334
▁Vide	-12335
▁enemy	-12336
▁rally	-12337
▁সত	-12338
▁রঙে	-12339
▁আলে	-12340
▁স্টাইল	-12341
োপাধ্যায়	-12342
▁উইকি	-12343
▁নিবন্ধন	-12344
▁কাণ্ড	-12345
▁Chen	-12346
▁আমদানি	-12347
▁stre	-12348
▁ডাকা	-12349
▁সাগ	-12350
▁এইরকম	-12351
▁stream	-12352
▁ধাক্কা	-12353
▁shape	-12354
▁ফলাফ	-12355
ঞ্জন	-12356
amental	-12357
▁Nobody	-12358
এক্স	-12359
▁prohib	-12360
pic	-12361
ropolitan	-12362
▁মুহুর্তে	-12363
▁Need	-12364
▁মাথার	-12365
""-	-12366
▁তী	-12367
▁rom	-12368
▁Kong	-12369
berg	-12370
▁Conne	-12371
▁পাঠ্য	-12372
যেমন	-12373
▁বোকা	-12374
▁Hyder	-12375
▁গতিতে	-12376
বান্ধব	-12377
▁apart	-12378
ানকে	-12379
▁Priv	-12380
▁Viet	-12381
▁Assist	-12382
▁ain	-12383
▁ওয়েল	-12384
সাং	-12385
aptain	-12386
নন্দ	-12387
▁ক্ষে	-12388
▁deployed	-12389
▁observed	-12390
itz	-12391
▁তান	-12392
▁জেমস	-12393
▁গর্ভাব	-12394
▁flights	-12395
▁সোভ	-12396
▁losing	-12397
uls	-12398
▁squad	-12399
▁থাকায়	-12400
ipping	-12401
▁একজনকে	-12402
arsh	-12403
hemat	-12404
▁মাল্টি	-12405
িকাল	-12406
▁খার	-12407
▁fifth	-12408
▁fit	-12409
▁miles	-12410
▁জগতের	-12411
▁Opp	-12412
orter	-12413
▁upload	-12414
▁চলেছেন	-12415
acters	-12416
▁চাইছি	-12417
▁Person	-12418
dd	-12419
▁এমপি	-12420
▁circumst	-12421
▁dat	-12422
▁markets	-12423
▁এগুলোর	-12424
▁Yeah	-12425
টিয়া	-12426
▁pieces	-12427
▁ফিলিস্ত	-12428
▁অ্যার	-12429
▁orders	-12430
গড়	-12431
▁sho	-12432
▁এখ	-12433
▁funds	-12434
▁জানতেন	-12435
চনায়	-12436
িনো	-12437
গামী	-12438
▁বৃহৎ	-12439
▁আজকাল	-12440
▁concerns	-12441
ধরনের	-12442
▁ordin	-12443
▁stone	-12444
▁Obama	-12445
IA	-12446
ূর্ব	-12447
reland	-12448
▁Imran	-12449
▁যাদ	-12450
▁দেশকে	-12451
কেন্দ্র	-12452
▁অপরকে	-12453
▁অ্যাপটি	-12454
আলা	-12455
▁তাতেও	-12456
ঙ্কে	-12457
IP	-12458
▁গোল্ড	-12459
▁বিনিময়	-12460
▁গিয়েছেন	-12461
ফাইল	-12462
▁বাঁচতে	-12463
▁এলে	-12464
▁সাগর	-12465
▁clients	-12466
0)	-12467
▁ইহাতে	-12468
▁guests	-12469
্বিক	-12470
▁hoping	-12471
oured	-12472
▁করুনঃ	-12473
▁আদায়	-12474
▁লুকিয়ে	-12475
▁aid	-12476
▁থম	-12477
▁পর্ত	-12478
▁Fran	-12479
iveness	-12480
▁folk	-12481
▁feelings	-12482
▁বছরেরও	-12483
▁দক্ষিণে	-12484
৩০	-12485
▁চিরকাল	-12486
▁lockdown	-12487
▁প্রসারিত	-12488
▁clin	-12489
▁দেখলে	-12490
▁theat	-12491
rogen	-12492
প্লেক্স	-12493
▁খেলায়	-12494
▁Indians	-12495
▁ইসরায়ে	-12496
পমেন্ট	-12497
usalem	-12498
▁ইমে	-12499
বিরোধী	-12500
িয়েতনাম	-12501
▁শিখেছি	-12502
ুলার	-12503
▁আর্ট	-12504
▁অংশের	-12505
▁stations	-12506
▁বিবেচিত	-12507
▁দোষী	-12508
▁suppl	-12509
▁massive	-12510
▁গ্রাহকের	-12511
▁Buddh	-12512
▁প্রযো	-12513
▁Arabic	-12514
itary	-12515
▁ট্যাব	-12516
▁ভাইয়ের	-12517
uri	-12518
aces	-12519
▁জেন	-12520
▁উত্তরপ্র	-12521
▁Mand	-12522
▁খায়	-12523
▁মিশন	-12524
▁অবর	-12525
▁mode	-12526
▁Olympic	-12527
োয়াড়দের	-12528
▁মালিকানা	-12529
▁Head	-12530
▁Ireland	-12531
▁হয	-12532
সমূহের	-12533
মিয়ার	-12534
▁প্রান্ত	-12535
▁ফ্যাক্ট	-12536
ga	-12537
▁হইয়	-12538
মাণবিক	-12539
ান্তরিত	-12540
▁সার্টিফি	-12541
▁Abs	-12542
▁ডাল	-12543
▁headed	-12544
▁শিশুকে	-12545
▁IC	-12546
▁fra	-12547
▁thor	-12548
▁ডলারের	-12549
▁টিকিট	-12550
▁export	-12551
▁fashion	-12552
▁Priy	-12553
▁পর্তুগ	-12554
▁yellow	-12555
IM	-12556
্যকর	-12557
▁rural	-12558
▁inquiry	-12559
▁সমবেদনা	-12560
▁dating	-12561
সেবা	-12562
▁উপদেশ	-12563
ভাল	-12564
▁সাধারন	-12565
▁হাব	-12566
▁উপকৃত	-12567
▁Alamgir	-12568
▁আমিন	-12569
▁Stay	-12570
▁strate	-12571
▁কোনটা	-12572
▁৩১	-12573
▁strategy	-12574
▁util	-12575
▁Railway	-12576
▁breast	-12577
টিভি	-12578
ুরে	-12579
▁আপিল	-12580
▁মমতা	-12581
▁ভাবলাম	-12582
▁অধ্যায়	-12583
▁প্রতিবছর	-12584
▁কর্মরত	-12585
▁category	-12586
গড়া	-12587
ড়িয়েছে	-12588
▁স্টোরেজ	-12589
▁মোকাবিলা	-12590
দির	-12591
বেসে	-12592
▁Class	-12593
য়ী	-12594
▁dial	-12595
▁oldest	-12596
জিট	-12597
▁unf	-12598
▁Italian	-12599
▁Gal	-12600
▁familiar	-12601
▁করেছ	-12602
▁যাইতে	-12603
▁council	-12604
▁ডিগ্রী	-12605
▁রয়েছি	-12606
▁সিবিআই	-12607
▁Shiv	-12608
▁হংকং	-12609
▁রাজনীতির	-12610
▁shame	-12611
টুকুই	-12612
▁সাক্ষাত	-12613
▁Roman	-12614
মহ	-12615
▁কাত	-12616
ulous	-12617
▁দূতাব	-12618
▁troops	-12619
▁assault	-12620
▁degrees	-12621
▁সৌভাগ্য	-12622
ET	-12623
▁সমঝ	-12624
▁valu	-12625
▁Trust	-12626
▁সমুদ্রের	-12627
▁দেখব	-12628
charge	-12629
▁বেসামরিক	-12630
▁empty	-12631
▁বিশ্বস্ত	-12632
▁None	-12633
▁করিবে	-12634
▁বার্সেল	-12635
▁ওনার	-12636
ঞ্চিত	-12637
▁ফেলেছে	-12638
▁শিক	-12639
▁গণ্য	-12640
▁আয়োজিত	-12641
ীমা	-12642
▁fan	-12643
তই	-12644
▁privacy	-12645
▁possibly	-12646
োজেন	-12647
▁Cut	-12648
▁ছুটে	-12649
▁Nat	-12650
▁দুবাই	-12651
টিত	-12652
ধাব	-12653
▁Creat	-12654
▁scored	-12655
▁Johnson	-12656
▁despite	-12657
▁সাল্লাম	-12658
ham	-12659
▁Shaf	-12660
▁পার্ট	-12661
▁Exec	-12662
acific	-12663
▁entry	-12664
ola	-12665
▁noticed	-12666
▁বৈশ্বিক	-12667
▁আইসি	-12668
▁opinions	-12669
▁dispute	-12670
▁মাস্টার	-12671
▁পরিপূর্ণ	-12672
aved	-12673
▁গানটি	-12674
▁মেয়েকে	-12675
▁Project	-12676
▁দ্বিপ	-12677
▁ধারনা	-12678
▁ব্লগার	-12679
cont	-12680
▁ফোক	-12681
Where	-12682
▁কথাগুলো	-12683
owing	-12684
▁জিতেছে	-12685
▁miner	-12686
▁prayers	-12687
▁অধিকাংশই	-12688
▁Pet	-12689
▁Grand	-12690
গ্ন	-12691
▁কার্যকার	-12692
হাত	-12693
▁arms	-12694
▁তুমিও	-12695
▁দুনিয়া	-12696
▁বহি	-12697
১২	-12698
ঘরে	-12699
শিদ	-12700
▁picked	-12701
▁আরোপ	-12702
▁উঠলো	-12703
▁Happy	-12704
▁সংবেদন	-12705
%.	-12706
াবিদ	-12707
▁টাইমস	-12708
▁স্বপ্নের	-12709
▁Dar	-12710
▁Ur	-12711
▁counter	-12712
▁wearing	-12713
▁পরিবেশের	-12714
্নার	-12715
▁AS	-12716
▁Uk	-12717
▁হেঁ	-12718
ception	-12719
care	-12720
▁ভিডিওতে	-12721
▁পিতাম	-12722
▁Museum	-12723
▁বিক্র	-12724
েদ	-12725
▁Virat	-12726
▁অপূর্ব	-12727
ময়ে	-12728
ণ্ডিত	-12729
▁2020.	-12730
▁বাবাকে	-12731
খিল	-12732
▁এসেছিলেন	-12733
▁রাজধানীর	-12734
agh	-12735
ক্টর	-12736
▁evil	-12737
▁তুমিই	-12738
▁রেস্ট	-12739
▁8.	-12740
▁কৌত	-12741
▁পরেও	-12742
▁strateg	-12743
ails	-12744
▁Hamid	-12745
▁পরস্পর	-12746
▁initial	-12747
▁AK	-12748
▁Fakhrul	-12749
▁বুঝিয়ে	-12750
▁Sanj	-12751
▁Foot	-12752
▁Dubai	-12753
▁conver	-12754
▁কর্মচারী	-12755
▁ছাপ	-12756
▁থাকবো	-12757
▁যাঁরা	-12758
▁নেতাদের	-12759
▁আগামীকাল	-12760
LA	-12761
▁হৃদরোগ	-12762
▁নারীরা	-12763
▁Green	-12764
▁সোস	-12765
▁কৃষকদের	-12766
▁প্রশাসক	-12767
▁Cap	-12768
▁boo	-12769
▁ruling	-12770
nai	-12771
পথে	-12772
▁পালিত	-12773
▁36	-12774
▁updated	-12775
াফিজ	-12776
▁আছেই	-12777
িয়াছে	-12778
▁Biden	-12779
▁smooth	-12780
▁প্রিয়া	-12781
চ্চার	-12782
ipe	-12783
▁বিগত	-12784
▁বীমা	-12785
yl	-12786
▁hide	-12787
▁হাইকোর্ট	-12788
▁কতো	-12789
▁বীজ	-12790
▁Learn	-12791
iot	-12792
▁Emp	-12793
▁টিক	-12794
▁priority	-12795
▁বিরোধিতা	-12796
▁ঢেকে	-12797
▁মোদীর	-12798
▁সস্তা	-12799
িস্তানে	-12800
▁ID	-12801
▁আম্ম	-12802
▁দৈনন্দ	-12803
▁hell	-12804
▁বৈচিত্র	-12805
iders	-12806
▁BC	-12807
▁sustain	-12808
▁verdict	-12809
োরি	-12810
▁solid	-12811
▁submit	-12812
RC	-12813
▁fuel	-12814
ভু	-12815
বেগের	-12816
▁নিষ্ঠ	-12817
▁elim	-12818
▁অভিবাস	-12819
▁গ্লোবাল	-12820
▁messages	-12821
▁visitors	-12822
▁তরল	-12823
▁ফুটব	-12824
▁union	-12825
বৃন্দ	-12826
▁সাইকেল	-12827
অধ	-12828
াবিশ	-12829
▁accompan	-12830
▁উপজেলার	-12831
িতো	-12832
▁feat	-12833
▁বাইবে	-12834
▁selling	-12835
▁silence	-12836
▁2011	-12837
▁রোহি	-12838
▁models	-12839
▁division	-12840
orney	-12841
▁প্রাপ্য	-12842
▁মিলিত	-12843
▁Action	-12844
akers	-12845
ূর্তি	-12846
▁অঙ্ক	-12847
▁গণমাধ্যম	-12848
▁frame	-12849
▁chances	-12850
শির	-12851
▁Age	-12852
▁স্র	-12853
▁magn	-12854
▁Michael	-12855
ীবন	-12856
▁করেও	-12857
▁ডকুম	-12858
▁compar	-12859
▁Club	-12860
▁তারও	-12861
বোন	-12862
বিশ্ব	-12863
▁race	-12864
▁excess	-12865
▁বলিলেন	-12866
▁fee	-12867
▁terr	-12868
▁seeking	-12869
▁দৈনন্দিন	-12870
aves	-12871
▁ফসল	-12872
াক্ত	-12873
▁মোঃ	-12874
কর্তা	-12875
▁দ্বিগ	-12876
itage	-12877
▁কারাদ	-12878
ahid	-12879
▁kilomet	-12880
ফোর্ড	-12881
idents	-12882
জুন	-12883
ional	-12884
▁পরমাণু	-12885
২২	-12886
মুক্ত	-12887
▁কার্বন	-12888
▁টের	-12889
▁Maj	-12890
▁Nurul	-12891
ুদি	-12892
▁মতই	-12893
▁সুনি	-12894
".	-12895
▁লড়	-12896
মাধ্যমে	-12897
▁চালায়	-12898
▁অক্সিজেন	-12899
▁deeply	-12900
▁স্পিকার	-12901
oni	-12902
▁গুন	-12903
▁পুনঃ	-12904
apur	-12905
▁মানুষদের	-12906
াচ	-12907
জাতি	-12908
▁দর্শক	-12909
▁শুয়ে	-12910
▁ক্ষমতার	-12911
মানুষ	-12912
▁Death	-12913
▁পরিণতি	-12914
▁সমস্যাটি	-12915
▁অটো	-12916
▁খুনের	-12917
১৭	-12918
কাঙ্	-12919
▁Sel	-12920
▁তুরস্ক	-12921
▁কন্ট্রোল	-12922
শয়	-12923
▁Olympics	-12924
▁রোহিত	-12925
▁honor	-12926
▁rates	-12927
▁পতাকা	-12928
▁হবেঃ	-12929
ographer	-12930
▁ভেসে	-12931
rin	-12932
verty	-12933
▁tips	-12934
▁detect	-12935
কথা	-12936
▁steel	-12937
▁বসন্ত	-12938
▁রইলাম	-12939
▁Rev	-12940
▁Society	-12941
▁poverty	-12942
▁সাশ্রয়	-12943
লক	-12944
ফ্ল	-12945
▁Ok	-12946
▁২০০৯	-12947
▁wanna	-12948
বাংল	-12949
▁Han	-12950
▁Around	-12951
▁জেলে	-12952
▁raise	-12953
▁হাইড্র	-12954
umn	-12955
▁faced	-12956
এনএ	-12957
▁থানা	-12958
▁flour	-12959
▁unfortun	-12960
ew	-12961
▁২০০৮	-12962
▁ঝাঁ	-12963
ক্ষণে	-12964
▁Bangla	-12965
adi	-12966
ক্ষেত্র	-12967
▁গভর্নর	-12968
▁aspects	-12969
▁রেখেছেন	-12970
-4	-12971
▁প্রফেস	-12972
▁চিন্তার	-12973
▁Java	-12974
▁publ	-12975
▁audio	-12976
▁শতকের	-12977
▁দাগ	-12978
▁রসূল	-12979
▁instance	-12980
ভাবনা	-12981
▁incor	-12982
▁বচ্চন	-12983
▁inaugur	-12984
▁সোভিয়েত	-12985
osen	-12986
অক্স	-12987
▁Should	-12988
▁প্রশান্ত	-12989
▁liqu	-12990
▁3,	-12991
van	-12992
ুখী	-12993
▁সঙ্গী	-12994
▁chick	-12995
মাল	-12996
ibur	-12997
▁enfor	-12998
▁রোববার	-12999
▁behavior	-13000
▁rapidly	-13001
▁pattern	-13002
▁ফেডারেল	-13003
বিচার	-13004
rawn	-13005
কোত্তর	-13006
eed	-13007
্রিয়ায়	-13008
▁"1	-13009
ায়ণ	-13010
▁আসনে	-13011
▁মল	-13012
▁10.	-13013
▁chapter	-13014
▁situated	-13015
▁জখ	-13016
▁মর্ম	-13017
▁পরিদর্শ	-13018
▁historic	-13019
▁iron	-13020
unk	-13021
uting	-13022
▁দ্বার	-13023
▁গল	-13024
▁সবে	-13025
▁গঠনের	-13026
▁আশাবাদী	-13027
▁দেবো	-13028
▁react	-13029
▁ashamed	-13030
▁উত্তেজন	-13031
▁সাজানো	-13032
কিব	-13033
্রেশন	-13034
▁stick	-13035
▁দ্যা	-13036
ধ্যে	-13037
▁Rohit	-13038
▁Didn	-13039
▁৩৫	-13040
▁এইরূপ	-13041
▁খাল	-13042
▁প্লেয়ার	-13043
্বিত	-13044
▁2000	-13045
▁Sams	-13046
▁নৌকা	-13047
▁রেস্ত	-13048
▁পড়েছিল	-13049
▁Governor	-13050
▁ধরন	-13051
ortem	-13052
▁resolve	-13053
▁ভৌ	-13054
▁greatly	-13055
▁Shak	-13056
▁obl	-13057
▁Account	-13058
▁serving	-13059
ভিন	-13060
▁(201	-13061
▁সেটিং	-13062
▁জ্বালানি	-13063
▁মহাদেশ	-13064
gment	-13065
▁loving	-13066
▁prefer	-13067
▁Dec	-13068
▁crucial	-13069
োক্তা	-13070
▁আফ্রিকান	-13071
▁দারি	-13072
▁হইলে	-13073
ঞ্চি	-13074
▁diagn	-13075
ভেদ	-13076
বিষয়	-13077
Sh	-13078
▁Ibn	-13079
▁ভয়ানক	-13080
▁survived	-13081
ingu	-13082
▁surely	-13083
ঝি	-13084
▁ছয়টি	-13085
ারাক	-13086
ule	-13087
entially	-13088
BA	-13089
▁জ্যো	-13090
▁পেশা	-13091
▁বাঁচাতে	-13092
:-	-13093
asty	-13094
aming	-13095
▁নিচ্ছি	-13096
▁Priyanka	-13097
▁murdered	-13098
▁ibn	-13099
১৬	-13100
west	-13101
▁Policy	-13102
▁পারলেন	-13103
▁সুষ্ঠ	-13104
▁honour	-13105
▁engaged	-13106
▁নিবন্ধটি	-13107
▁খাঁ	-13108
▁অধিকারী	-13109
▁জানাবেন	-13110
বিড়	-13111
anges	-13112
▁ক্যাট	-13113
▁জবাবে	-13114
▁carbon	-13115
herlands	-13116
▁মানচিত্র	-13117
ূনতম	-13118
theless	-13119
▁প্রযোজক	-13120
▁বক্তৃতা	-13121
▁meal	-13122
resp	-13123
ঁর	-13124
▁তাহাতে	-13125
▁দর্শকদের	-13126
▁mir	-13127
▁কোলে	-13128
▁Photo	-13129
ules	-13130
▁হিল	-13131
▁দেখছে	-13132
্টন	-13133
▁সামর্থ	-13134
ইও	-13135
itutional	-13136
cles	-13137
ensions	-13138
▁হয়েছিলো	-13139
▁চাকরির	-13140
▁খাত	-13141
never	-13142
▁surround	-13143
▁conclud	-13144
▁simpl	-13145
▁powder	-13146
▁সিপি	-13147
▁assign	-13148
▁ইলেক্ট	-13149
▁অন্যথায়	-13150
▁পদক	-13151
itors	-13152
▁বাক্স	-13153
▁toward	-13154
▁moments	-13155
▁সূর্যের	-13156
▁বইটা	-13157
▁নির্মাতা	-13158
▁আইএস	-13159
▁condol	-13160
▁sought	-13161
▁holding	-13162
▁withdraw	-13163
সনের	-13164
▁dear	-13165
সমা	-13166
▁punished	-13167
▁মেগ	-13168
▁wake	-13169
▁rivers	-13170
▁রিসার্চ	-13171
▁জাপানি	-13172
▁হোল	-13173
India	-13174
▁streets	-13175
নেক	-13176
▁judic	-13177
""""	-13178
live	-13179
্নাই	-13180
▁ভরে	-13181
▁হাড়	-13182
alt	-13183
▁Sports	-13184
▁boat	-13185
▁Lt	-13186
তিষ্ঠ	-13187
▁সোনা	-13188
▁debut	-13189
▁approval	-13190
▁Raf	-13191
র্দ	-13192
▁Mc	-13193
icon	-13194
▁ওঠা	-13195
▁করোন	-13196
▁fle	-13197
▁বাঙ	-13198
▁বর্ধ	-13199
▁Ronald	-13200
▁অন্যরা	-13201
▁একইভাবে	-13202
onding	-13203
▁সঙ্গেও	-13204
▁ইংলিশ	-13205
ক্ষী	-13206
▁সাতটি	-13207
▁মাইকেল	-13208
lor	-13209
▁hel	-13210
▁সঞ্জ	-13211
▁জ্বল	-13212
▁writes	-13213
▁cheap	-13214
▁Pers	-13215
ব্যবহার	-13216
▁Mel	-13217
▁survey	-13218
▁passion	-13219
▁থাকত	-13220
DA	-13221
▁সম্পাদন	-13222
▁পায়ের	-13223
▁commonly	-13224
▁পোস্টে	-13225
▁সোহ	-13226
ls	-13227
Our	-13228
▁founder	-13229
che	-13230
▁tend	-13231
ঘা	-13232
▁Kaz	-13233
শাসিত	-13234
▁দেখো	-13235
▁বলিনি	-13236
▁termin	-13237
ান্ট	-13238
▁চাইনি	-13239
CP	-13240
▁সঞ্চয়	-13241
▁বিজ্ঞানী	-13242
স্র	-13243
স্কো	-13244
▁নগদ	-13245
▁IT	-13246
▁পট	-13247
▁ছুঁ	-13248
▁Continue	-13249
versy	-13250
▁অ্যাট	-13251
▁eastern	-13252
▁গল্পটা	-13253
াদির	-13254
▁Liber	-13255
▁ভোটের	-13256
▁Wr	-13257
▁swim	-13258
win	-13259
▁পাঠাতে	-13260
igration	-13261
▁Old	-13262
▁পশ্চিমে	-13263
▁Cam	-13264
▁units	-13265
▁fab	-13266
▁মিথ্যে	-13267
▁winner	-13268
▁Witness	-13269
▁জামিন	-13270
▁টিভ	-13271
▁বেগম	-13272
▁Syl	-13273
▁এরও	-13274
mo	-13275
▁laughing	-13276
্রত	-13277
▁Thousand	-13278
▁বর্গ	-13279
▁দুর্যোগ	-13280
▁advanced	-13281
▁চাইছেন	-13282
viet	-13283
▁অবত	-13284
▁গুলিতে	-13285
▁থাকলেও	-13286
▁proposed	-13287
সম্মত	-13288
াবলিক	-13289
▁Mahbub	-13290
াদিগ	-13291
বাড়ি	-13292
▁উৎসাহিত	-13293
▁Mustaf	-13294
য়াস	-13295
▁জঙ্গ	-13296
▁তারাই	-13297
ading	-13298
▁setting	-13299
▁সেভাবে	-13300
▁প্রফেসর	-13301
▁বিকাশের	-13302
▁নও	-13303
▁Bur	-13304
াব্ল	-13305
▁নিলেন	-13306
▁Aam	-13307
umber	-13308
▁পাবো	-13309
▁নেদার	-13310
▁দেখছেন	-13311
▁প্রবণতা	-13312
▁inspired	-13313
rant	-13314
elines	-13315
▁অনন্ত	-13316
▁অবকাঠ	-13317
▁ক্ষতির	-13318
▁গাড়ী	-13319
ST	-13320
▁Mun	-13321
▁trains	-13322
▁scheme	-13323
kind	-13324
▁সচেতনতা	-13325
▁ভিক	-13326
িত্বের	-13327
reprene	-13328
াদশ	-13329
▁ব্যার	-13330
▁বিস্তার	-13331
▁জগৎ	-13332
োগ্রামিং	-13333
▁Limited	-13334
▁colours	-13335
aken	-13336
▁ট্রাই	-13337
▁Teacher	-13338
গন	-13339
▁খুলতে	-13340
▁দাদা	-13341
ficulty	-13342
▁গুঁড়া	-13343
ius	-13344
▁Jam	-13345
▁ice	-13346
▁আমর	-13347
▁পারছ	-13348
▁Bhatt	-13349
▁স্বর্গ	-13350
▁Chennai	-13351
▁argument	-13352
▁Oper	-13353
▁obtain	-13354
anging	-13355
▁কাটাতে	-13356
▁rent	-13357
▁তৃ	-13358
▁পরদিন	-13359
১৪	-13360
▁স্কট	-13361
atar	-13362
▁ইহাই	-13363
▁records	-13364
▁"-	-13365
▁readers	-13366
One	-13367
▁তাঁহার	-13368
▁smaller	-13369
▁AP	-13370
▁Bay	-13371
▁bike	-13372
▁আর্ম	-13373
▁খনিজ	-13374
▁প্রথমত	-13375
▁agricult	-13376
▁desk	-13377
▁বিস্মিত	-13378
▁Tit	-13379
▁dogs	-13380
▁tablesp	-13381
▁balance	-13382
▁করতো	-13383
▁square	-13384
▁এও	-13385
ডনি	-13386
nic	-13387
▁কেনা	-13388
ীড়	-13389
bu	-13390
▁Das	-13391
using	-13392
য়ায়	-13393
▁দপ্তর	-13394
▁সময়েই	-13395
▁উত্তেজিত	-13396
▁জোগ	-13397
▁deputy	-13398
▁thick	-13399
▁learnt	-13400
▁ব্যাগ	-13401
▁outcome	-13402
▁প্যানেল	-13403
▁ঈমান	-13404
▁এখানেও	-13405
ih	-13406
▁পিঠ	-13407
▁stup	-13408
▁বাড়ে	-13409
▁Better	-13410
cow	-13411
▁অয	-13412
▁Dig	-13413
▁creative	-13414
▁সাউথ	-13415
▁ডায়ে	-13416
▁সংসদে	-13417
▁হামিদ	-13418
Oh	-13419
▁ভাবা	-13420
্বা	-13421
▁পাননি	-13422
▁টেলিফোন	-13423
▁ছাত্রদের	-13424
োষ্ঠ	-13425
▁onions	-13426
ঝে	-13427
▁ইমাম	-13428
▁শৈশ	-13429
ক্ষক	-13430
▁ন্যূনতম	-13431
eper	-13432
▁Mot	-13433
▁buying	-13434
্রাল	-13435
▁বিপণন	-13436
▁effic	-13437
▁optim	-13438
▁চক	-13439
▁150	-13440
▁ধরার	-13441
্যাতন	-13442
▁Sweden	-13443
▁ইসরাই	-13444
ferences	-13445
▁spending	-13446
চ্ছুক	-13447
▁আমরাই	-13448
▁Eastern	-13449
▁রেস্টুর	-13450
▁অভিষেক	-13451
▁হেড	-13452
▁Rohing	-13453
▁রিয়েল	-13454
▁offices	-13455
▁স্য	-13456
▁উপসর্গ	-13457
▁Down	-13458
▁তুম	-13459
▁বাবু	-13460
▁recover	-13461
achelor	-13462
▁দারিদ্র	-13463
▁colleges	-13464
ংকর	-13465
▁গেমটি	-13466
▁LED	-13467
▁বেগ	-13468
▁Iranian	-13469
▁coal	-13470
▁guard	-13471
▁villages	-13472
▁উন্নয়নে	-13473
itate	-13474
▁তল্লা	-13475
▁Sult	-13476
▁external	-13477
▁হলঃ	-13478
▁ইউক্র	-13479
▁relief	-13480
▁ঘণ্টার	-13481
▁নিহতের	-13482
▁believes	-13483
াসী	-13484
▁ইব্র	-13485
্টিক	-13486
▁নির্যাত	-13487
assy	-13488
▁খারিজ	-13489
▁4:	-13490
েস্টার	-13491
▁Football	-13492
▁ages	-13493
▁habit	-13494
rough	-13495
▁Israeli	-13496
eep	-13497
▁জখম	-13498
▁Soviet	-13499
▁সংসদের	-13500
▁Top	-13501
▁দৈর্ঘ্য	-13502
▁rum	-13503
▁আত্মার	-13504
ন্ত্রণের	-13505
▁মোটরসাই	-13506
সুল	-13507
▁fever	-13508
▁বরাবরই	-13509
edy	-13510
▁জী	-13511
মেইল	-13512
▁রোড	-13513
▁অনুরাগ	-13514
▁advised	-13515
রিতে	-13516
▁হিউ	-13517
chest	-13518
▁পাঠক	-13519
▁2:	-13520
▁আসাম	-13521
▁রাজপুত	-13522
▁votes	-13523
▁Economic	-13524
▁ডিরেক্টর	-13525
▁সাড়ে	-13526
hips	-13527
ভারত	-13528
▁valuable	-13529
▁আইও	-13530
▁Tim	-13531
▁সফলতা	-13532
▁ঃ	-13533
▁48	-13534
▁assum	-13535
resented	-13536
▁হাজারের	-13537
▁রিক	-13538
▁মুশক	-13539
▁Pan	-13540
াদিগকে	-13541
▁Mount	-13542
▁পাশের	-13543
▁forth	-13544
▁lights	-13545
▁toler	-13546
প্রাণ	-13547
▁bottom	-13548
▁স্পোর্ট	-13549
▁feder	-13550
▁accurate	-13551
দলের	-13552
ayan	-13553
▁বিলম্ব	-13554
▁artists	-13555
▁lapt	-13556
▁stir	-13557
▁Train	-13558
▁গুঁড়ো	-13559
▁warning	-13560
মিল	-13561
স্পষ্ট	-13562
▁Miss	-13563
▁ধূমপান	-13564
▁schedule	-13565
yan	-13566
▁Cover	-13567
▁মানতে	-13568
▁assess	-13569
▁বৃহত্তর	-13570
▁শ্রেণীর	-13571
ণি	-13572
কাজ	-13573
stan	-13574
▁Det	-13575
▁academic	-13576
▁ভারতকে	-13577
▁sentence	-13578
ধারা	-13579
▁Sil	-13580
erjee	-13581
▁closely	-13582
▁Kat	-13583
▁পেই	-13584
▁Consult	-13585
▁সংঘর্ষে	-13586
▁বৈষম	-13587
▁Space	-13588
▁Commerce	-13589
DC	-13590
▁Birth	-13591
▁বানিয়ে	-13592
’.	-13593
ganj	-13594
▁Due	-13595
▁নম্ব	-13596
▁গির্	-13597
▁বিস্ফোরণ	-13598
সীমা	-13599
▁উপকারিতা	-13600
▁ঘুমের	-13601
▁টেক্সট	-13602
▁penal	-13603
▁ভাইরাসের	-13604
উন্টে	-13605
▁একাই	-13606
▁casual	-13607
▁কানাডার	-13608
দাতা	-13609
▁strongly	-13610
▁সহিত	-13611
আমাকে	-13612
IV	-13613
▁rains	-13614
▁নিম্নে	-13615
oga	-13616
▁কানাড	-13617
▁সোনার	-13618
▁beings	-13619
▁chosen	-13620
▁দ্বিগুণ	-13621
▁নেতৃ	-13622
▁বাংলার	-13623
▁resolved	-13624
alley	-13625
▁sacr	-13626
▁জন্মের	-13627
▁mand	-13628
▁Mart	-13629
▁Covid	-13630
▁শুরুটা	-13631
uses	-13632
▁পেয়েছিল	-13633
▁লস	-13634
গুলোও	-13635
▁কেস	-13636
▁গৌর	-13637
ল্পিত	-13638
▁Star	-13639
পশ্চিম	-13640
কিতে	-13641
▁হিট	-13642
▁ভঙ্গ	-13643
▁তল্লাশি	-13644
▁Den	-13645
▁বটেই	-13646
aped	-13647
প্তাহ	-13648
▁খ্যা	-13649
porate	-13650
▁কোম্পান	-13651
বারে	-13652
ancellor	-13653
ache	-13654
▁সীমান্তে	-13655
বেস	-13656
ফাইন	-13657
▁লন্ডনের	-13658
▁sole	-13659
▁Azad	-13660
▁জানালা	-13661
▁ফ্রন্ট	-13662
▁ইতালি	-13663
ডো	-13664
োপক	-13665
▁খুশী	-13666
▁অপরাধের	-13667
জিস্ট	-13668
▁ঝগড়া	-13669
▁বিড়াল	-13670
▁কাজও	-13671
২০০	-13672
etime	-13673
▁Krish	-13674
▁Video	-13675
মিশ	-13676
▁Master	-13677
▁recovery	-13678
মালা	-13679
phas	-13680
▁নামটি	-13681
▁bacter	-13682
70	-13683
▁Nadu	-13684
▁আইডি	-13685
▁বিশদ	-13686
ructed	-13687
▁উত্তরা	-13688
▁ফেলেছি	-13689
▁ভ্যাল	-13690
▁Further	-13691
▁নদ	-13692
ত্তা	-13693
▁জ্বর	-13694
▁Sylhet	-13695
▁রপ্তানি	-13696
▁সশস্ত্র	-13697
▁টিরও	-13698
▁ব্রিটেন	-13699
yo	-13700
▁নির্যাতন	-13701
adav	-13702
▁ফেই	-13703
▁satell	-13704
▁Madhya	-13705
▁বাজারের	-13706
▁মধু	-13707
▁অবনতি	-13708
বার্গ	-13709
▁যুগের	-13710
িথ	-13711
লীগের	-13712
পয়	-13713
পন্থী	-13714
▁finding	-13715
▁unus	-13716
▁গায়ে	-13717
▁ঢাকার	-13718
▁চলো	-13719
▁affairs	-13720
▁প্রাইভেট	-13721
▁তুষ	-13722
▁datab	-13723
▁চাইছে	-13724
▁cinema	-13725
▁করলেও	-13726
▁suspect	-13727
▁thy	-13728
▁মিন	-13729
▁strike	-13730
▁Vietnam	-13731
▁নিরপেক্ষ	-13732
▁reward	-13733
▁ফ্যাশন	-13734
াফিক	-13735
▁Team	-13736
▁আশ্বাস	-13737
▁3:	-13738
▁উঁচু	-13739
▁ইউনাই	-13740
▁ফোকাস	-13741
▁Lab	-13742
▁lying	-13743
▁ডিভাইসে	-13744
▁চেন্নাই	-13745
▁ধান	-13746
্টেন	-13747
▁মেলেনি	-13748
▁Rab	-13749
▁ওসব	-13750
▁myst	-13751
▁থাইল	-13752
পাতের	-13753
▁welcom	-13754
▁পারেঃ	-13755
▁accord	-13756
▁courses	-13757
▁সিনেমাটি	-13758
▁Fort	-13759
▁প্যারিস	-13760
OC	-13761
▁প্যান	-13762
▁carrying	-13763
▁লোড	-13764
▁ডকুমেন্ট	-13765
▁id	-13766
▁Saif	-13767
▁প্রথমেই	-13768
▁pleasure	-13769
▁মানেই	-13770
▁রীতিমতো	-13771
▁ইইউ	-13772
▁কিউ	-13773
▁infected	-13774
cuit	-13775
▁192	-13776
েপ	-13777
▁গ্রেট	-13778
▁ঢাকায়	-13779
uce	-13780
▁ফস	-13781
▁হৈ	-13782
▁তুর্	-13783
▁ভিসা	-13784
▁অনিশ্চ	-13785
▁diss	-13786
orable	-13787
▁ফোনটি	-13788
▁নিচ্ছেন	-13789
▁শান্তির	-13790
▁বিবাহিত	-13791
▁ফেসবুকের	-13792
▁দৌড়	-13793
▁Express	-13794
▁রক্ষণাবে	-13795
ব্দে	-13796
▁domain	-13797
▁গীত	-13798
▁অভিনয়ের	-13799
aq	-13800
EL	-13801
▁Lin	-13802
▁পরও	-13803
▁Qual	-13804
▁Exper	-13805
▁acted	-13806
▁spect	-13807
শীলতা	-13808
▁context	-13809
▁herself	-13810
জুর	-13811
▁৭০	-13812
rison	-13813
▁stun	-13814
▁মার্কেট	-13815
▁লোককে	-13816
▁pure	-13817
▁হারে	-13818
▁watched	-13819
▁সেইসঙ্গে	-13820
িয়নের	-13821
▁behalf	-13822
▁decor	-13823
▁দলীয়	-13824
▁উচ্চতর	-13825
phones	-13826
▁মেক্সিকো	-13827
ওয়েল	-13828
েলর	-13829
▁Vict	-13830
▁doors	-13831
াপত্র	-13832
▁দিনই	-13833
▁প্রজাতি	-13834
▁tomatoes	-13835
▁Change	-13836
▁দায়বদ্ধ	-13837
▁defined	-13838
▁নজরে	-13839
▁Madrid	-13840
▁Tai	-13841
▁Tele	-13842
▁সবকিছুর	-13843
▁mal	-13844
▁বিদ্যুত	-13845
▁composed	-13846
ahar	-13847
▁Allow	-13848
▁পেট	-13849
ailand	-13850
টাগ্রামে	-13851
▁বানানো	-13852
▁উদ্দেশে	-13853
▁networks	-13854
otions	-13855
▁fuck	-13856
▁hearts	-13857
▁Banerjee	-13858
▁shopping	-13859
▁legs	-13860
▁loan	-13861
enture	-13862
cknow	-13863
▁রাজশ	-13864
pective	-13865
▁Welcome	-13866
▁speaks	-13867
▁সুষ্ঠু	-13868
▁ভেন	-13869
মান্ড	-13870
▁কথোপক	-13871
TP	-13872
▁hall	-13873
▁nerv	-13874
▁এজেন্ট	-13875
▁agencies	-13876
▁Nag	-13877
▁ডেটিং	-13878
▁নিষ্প	-13879
ba	-13880
▁ভুট	-13881
▁crash	-13882
▁ordinary	-13883
▁পাট	-13884
▁একটাই	-13885
াসেব	-13886
▁Eid	-13887
বঙ্গের	-13888
▁cycle	-13889
▁সালাম	-13890
itamins	-13891
▁টন	-13892
▁মেইল	-13893
▁পুরোনো	-13894
▁পরিত	-13895
▁64	-13896
▁arm	-13897
▁Church	-13898
▁স্টি	-13899
গরিষ্ঠ	-13900
▁Search	-13901
সন্ত	-13902
▁ডুবে	-13903
▁আলমগীর	-13904
▁Mer	-13905
icing	-13906
ae	-13907
ছা	-13908
▁;	-13909
▁সেরে	-13910
▁জ্যোতি	-13911
▁অবহিত	-13912
▁ছায়া	-13913
▁ye	-13914
▁Brah	-13915
igible	-13916
▁উপা	-13917
▁Abdus	-13918
▁চলাকালীন	-13919
▁polls	-13920
▁৯০	-13921
▁কারণও	-13922
▁সেখানকার	-13923
▁ওয়ার্	-13924
▁Believe	-13925
▁Call	-13926
▁একটুও	-13927
:)	-13928
▁লুই	-13929
▁কথাটি	-13930
▁ওঠার	-13931
▁দাবী	-13932
চ্ছিলেন	-13933
▁দুজনে	-13934
সমান	-13935
▁Actress	-13936
▁linked	-13937
▁teeth	-13938
▁টেলিভিশ	-13939
▁AM	-13940
চুর	-13941
▁info	-13942
athered	-13943
▁promote	-13944
▁লড়াইয়ে	-13945
কারণ	-13946
▁Sin	-13947
দ্বীপ	-13948
বিশেষ	-13949
▁Ret	-13950
▁রোমা	-13951
▁গুপ্ত	-13952
▁সাধ্য	-13953
▁ফখ	-13954
▁ওসি	-13955
দেরকে	-13956
▁amend	-13957
▁প্রতিটা	-13958
▁জনতা	-13959
▁Salam	-13960
▁ধর্ষণের	-13961
▁stupid	-13962
▁অ্যাসিড	-13963
▁দত্ত	-13964
▁contra	-13965
ূলে	-13966
azz	-13967
▁নৈতিক	-13968
▁করাও	-13969
urally	-13970
ুপে	-13971
▁isol	-13972
▁Moscow	-13973
▁ক্ষয়ক্ষ	-13974
▁ভালবাসার	-13975
▁Fund	-13976
amim	-13977
▁400	-13978
ংসের	-13979
▁টুল	-13980
▁trem	-13981
▁Store	-13982
াল্লাম	-13983
▁marks	-13984
▁মৃত্যুতে	-13985
িকারক	-13986
▁আইনগত	-13987
গি	-13988
top	-13989
▁সিরি	-13990
ipedia	-13991
▁disaster	-13992
ুয়েল	-13993
▁নামকরণ	-13994
▁পারস্প	-13995
রিচ	-13996
▁দামও	-13997
▁equival	-13998
//	-13999
▁shoes	-14000
▁মুশকিল	-14001
বন্দ	-14002
াহিত	-14003
▁depos	-14004
▁আকাশে	-14005
▁লাভের	-14006
▁অগ্রসর	-14007
কেত	-14008
life	-14009
▁রেস	-14010
▁ভেঙ্গে	-14011
▁অবগত	-14012
▁সেন্স	-14013
▁যেমনটা	-14014
▁vacation	-14015
ৈত	-14016
আইসি	-14017
arents	-14018
পত্য	-14019
াইস	-14020
▁দামে	-14021
▁আনে	-14022
বাহিত	-14023
▁দেখান	-14024
▁lunch	-14025
▁interact	-14026
umin	-14027
▁flower	-14028
▁Bo	-14029
▁আমারই	-14030
▁ফ্লোর	-14031
ব্ব	-14032
▁ট্রেডিং	-14033
▁promised	-14034
▁Saf	-14035
▁বেঁধে	-14036
কর্মীদের	-14037
▁কৃত্রিম	-14038
▁নিতান্ত	-14039
▁ফলস্বরূপ	-14040
▁fired	-14041
▁universe	-14042
▁Scient	-14043
ago	-14044
▁কলা	-14045
estyle	-14046
▁Harry	-14047
▁Chandra	-14048
▁দক্ষতার	-14049
▁Enter	-14050
▁blast	-14051
▁হাসতে	-14052
▁মহাসড়	-14053
▁Rang	-14054
▁উল্লেখ্য	-14055
▁Lu	-14056
▁Joe	-14057
▁আড়	-14058
▁airl	-14059
▁ডোজ	-14060
▁Support	-14061
▁দেখাচ্ছে	-14062
▁২০২১	-14063
▁Despite	-14064
▁অতীতে	-14065
▁খোলার	-14066
essions	-14067
জাতীয়	-14068
iary	-14069
do	-14070
সত্য	-14071
▁33	-14072
শিক্ষা	-14073
▁গায়ক	-14074
▁সেখানেও	-14075
▁Queen	-14076
কশন	-14077
▁ট্যুর	-14078
▁তেলের	-14079
▁Sorry	-14080
▁ভোর	-14081
▁লেনদেন	-14082
▁অস্থির	-14083
োকার	-14084
▁নয়া	-14085
▁motiv	-14086
▁client	-14087
▁বেকার	-14088
▁harmful	-14089
▁অ্যালকো	-14090
isc	-14091
▁chest	-14092
সিল	-14093
▁spl	-14094
▁quit	-14095
▁Set	-14096
দ্দিক	-14097
▁বিরাজ	-14098
eding	-14099
▁ইকবাল	-14100
▁নেপাল	-14101
▁পেত	-14102
▁সাইবার	-14103
▁defence	-14104
ificial	-14105
▁পারতেন	-14106
▁ইউটিউবে	-14107
▁fought	-14108
▁অধ্যক্ষ	-14109
▁খাতে	-14110
েম্বরের	-14111
▁বরাদ্দ	-14112
▁nervous	-14113
▁ক্লাবের	-14114
▁stronger	-14115
পূর্বে	-14116
▁gathered	-14117
▁190	-14118
cers	-14119
যন্ত্র	-14120
▁পোষণ	-14121
aked	-14122
ীয়াংশ	-14123
▁থাকো	-14124
▁দুর্গ	-14125
▁নিত্য	-14126
▁concent	-14127
এমএস	-14128
▁Listen	-14129
▁বাড়ার	-14130
▁besides	-14131
▁দমন	-14132
হত্যার	-14133
▁জোন	-14134
▁হেঁটে	-14135
TI	-14136
▁খুজে	-14137
মী	-14138
idering	-14139
,’	-14140
▁Hey	-14141
▁এশিয়ান	-14142
▁পরস্পরের	-14143
▁আসব	-14144
▁faces	-14145
▁dollars	-14146
▁Hon	-14147
▁সম্র	-14148
ান্ডার	-14149
▁স্পেশাল	-14150
▁Thailand	-14151
▁Palestin	-14152
▁শয়ত	-14153
ন্দকার	-14154
▁সাময়িক	-14155
▁Festival	-14156
ela	-14157
ওয়ের	-14158
▁clar	-14159
alore	-14160
▁Premier	-14161
▁spring	-14162
▁ছাড়তে	-14163
▁Arch	-14164
▁Member	-14165
emon	-14166
▁behavi	-14167
ফাজ	-14168
enes	-14169
▁পারেনঃ	-14170
▁motorcy	-14171
unal	-14172
▁Previous	-14173
▁transp	-14174
aded	-14175
দৃশ্য	-14176
▁Abul	-14177
▁অন্তর্গত	-14178
েজ	-14179
ilip	-14180
employ	-14181
Not	-14182
▁multi	-14183
▁অন্তর	-14184
ষেধ	-14185
itis	-14186
▁হরম	-14187
▁Advis	-14188
▁রক্তে	-14189
▁তাহাই	-14190
▁দলই	-14191
▁হান	-14192
▁গোলা	-14193
▁টিকে	-14194
▁solar	-14195
▁Secret	-14196
▁ছবিটির	-14197
▁লেখকের	-14198
ামীণ	-14199
▁Quran	-14200
▁জীবনটা	-14201
▁আদা	-14202
▁Though	-14203
▁পরিবেশে	-14204
▁ফুটবলার	-14205
▁অ্যালবাম	-14206
উস	-14207
▁সাহসী	-14208
▁Six	-14209
▁Ronaldo	-14210
no	-14211
িতাভ	-14212
▁পিসি	-14213
resident	-14214
▁demands	-14215
▁honey	-14216
▁দুঃখজনক	-14217
▁মহাসাগর	-14218
▁presided	-14219
হন	-14220
hus	-14221
▁সংখ	-14222
▁রিভিউ	-14223
১৩	-14224
▁Samsung	-14225
▁উত্থা	-14226
▁শুষ্ক	-14227
▁পাঁচজন	-14228
cription	-14229
▁leads	-14230
▁সাপোর্ট	-14231
▁constant	-14232
▁neck	-14233
anta	-14234
After	-14235
▁shortly	-14236
igent	-14237
▁mayor	-14238
▁রাত্রি	-14239
▁currency	-14240
▁সুরক্ষার	-14241
▁হর	-14242
▁ডিভাইসের	-14243
▁dropped	-14244
▁letters	-14245
▁ল্যাপটপ	-14246
▁লোকটি	-14247
▁appoint	-14248
▁দিবসের	-14249
▁fool	-14250
inating	-14251
▁জমে	-14252
house	-14253
াইটটি	-14254
▁পুরাতন	-14255
AB	-14256
▁কোন্	-14257
র্ধ্বতন	-14258
▁জোরে	-14259
ounter	-14260
://	-14261
▁Jose	-14262
▁operate	-14263
হো	-14264
jan	-14265
▁coin	-14266
▁মনোর	-14267
▁congreg	-14268
ভারে	-14269
▁ইস্ত	-14270
▁তেলে	-14271
▁warned	-14272
▁স্থাপত্য	-14273
▁Boy	-14274
▁ঠাকুর	-14275
ests	-14276
▁হাতি	-14277
▁prize	-14278
▁খেলবে	-14279
▁Candid	-14280
ঙ্গার	-14281
▁স্টিভ	-14282
▁quarter	-14283
▁falling	-14284
▁ভারতবর্ষ	-14285
Be	-14286
▁সিভিল	-14287
াধার	-14288
▁মোকাবেলা	-14289
salm	-14290
তোমরা	-14291
▁দুঃখের	-14292
▁panel	-14293
▁Daily	-14294
▁করাতে	-14295
ঞ্চলে	-14296
▁সুইড	-14297
কেটে	-14298
spector	-14299
খের	-14300
▁Light	-14301
unicipal	-14302
’-	-14303
গুলিও	-14304
▁পুড়ে	-14305
▁arrive	-14306
▁কোয়ার	-14307
▁dismiss	-14308
▁Amir	-14309
▁আরবি	-14310
▁ফেলার	-14311
▁প্রবেশের	-14312
▁বাগান	-14313
▁attitude	-14314
▁Cop	-14315
unist	-14316
▁Amin	-14317
▁ফোরাম	-14318
▁স্তন	-14319
thew	-14320
▁jump	-14321
▁deterior	-14322
▁আছো	-14323
▁keeps	-14324
▁Major	-14325
▁মিটিং	-14326
▁Congrats	-14327
ক্তিক	-14328
▁হবেই	-14329
বশত	-14330
▁Pass	-14331
▁সম্মানিত	-14332
িরো	-14333
erves	-14334
ogue	-14335
▁কিংব	-14336
▁অনা	-14337
▁aspect	-14338
▁সাক্ষী	-14339
▁Network	-14340
▁টয়	-14341
rition	-14342
▁আরবের	-14343
▁প্রকৌশল	-14344
বলী	-14345
▁আংশ	-14346
▁item	-14347
▁legend	-14348
▁replace	-14349
▁ছাড়িয়ে	-14350
FC	-14351
▁boost	-14352
▁হোস্ট	-14353
▁একসময়	-14354
▁thats	-14355
▁নাঃ	-14356
▁টেনে	-14357
▁চলেছি	-14358
▁খ্যাতি	-14359
▁ডেপ	-14360
▁করিলাম	-14361
▁Unfortun	-14362
▁Holy	-14363
▁laid	-14364
▁Tourism	-14365
▁কাজই	-14366
▁lake	-14367
চিত্রটি	-14368
▁জোরদার	-14369
▁singing	-14370
▁তর্ক	-14371
াবাদের	-14372
▁হারাতে	-14373
▁revenue	-14374
▁দিকের	-14375
related	-14376
▁4,	-14377
▁মাসিক	-14378
▁অক্ষয়	-14379
ym	-14380
▁লাইট	-14381
▁শিষ্য	-14382
▁involve	-14383
▁জনসন	-14384
▁সমূহ	-14385
াক্ষ	-14386
▁পশ্চিমা	-14387
▁loud	-14388
▁করিম	-14389
▁পরিস্কার	-14390
গুণ	-14391
▁virtual	-14392
▁তামিলনা	-14393
ারক	-14394
▁দেড়	-14395
▁স্থল	-14396
বিদ্যা	-14397
▁সিলেট	-14398
▁গভীরভাবে	-14399
▁dim	-14400
টিক্যাল	-14401
যান	-14402
▁টিপস	-14403
▁মেসি	-14404
aryana	-14405
▁চালিত	-14406
▁দেখিতে	-14407
▁profile	-14408
▁unusual	-14409
nergy	-14410
েটর	-14411
▁strugg	-14412
▁decade	-14413
TC	-14414
▁Los	-14415
▁fest	-14416
স্থানে	-14417
▁ভাগ্যবান	-14418
▁tow	-14419
▁গুগলের	-14420
▁Phys	-14421
▁rose	-14422
▁কমানোর	-14423
▁Connect	-14424
▁সংক্ষেপে	-14425
▁আরা	-14426
▁ইনস্টলে	-14427
▁relation	-14428
সেন	-14429
▁নূর	-14430
▁ছিলে	-14431
▁hack	-14432
উক	-14433
▁রিপাবলিক	-14434
▁describe	-14435
জনীন	-14436
▁গলা	-14437
▁abuse	-14438
▁গ্রামীণ	-14439
▁দৃষ্টিতে	-14440
ns	-14441
▁টেকসই	-14442
anga	-14443
▁লাগতে	-14444
▁ম্যাগাজ	-14445
র্যা	-14446
▁(""	-14447
▁কুই	-14448
▁Deepika	-14449
▁pu	-14450
▁ইমেজ	-14451
▁সাহে	-14452
rie	-14453
rier	-14454
াপূর্ণ	-14455
▁Create	-14456
▁কমন	-14457
▁বাঘ	-14458
▁phen	-14459
▁এরপরে	-14460
খাস্ত	-14461
▁মাতৃ	-14462
▁net	-14463
▁Hard	-14464
igrants	-14465
▁দাঁত	-14466
▁acknow	-14467
।-	-14468
▁অক	-14469
nath	-14470
▁মাদ্রি	-14471
▁patience	-14472
ni	-14473
▁1)	-14474
▁উপে	-14475
▁league	-14476
ura	-14477
ঘাতী	-14478
▁tur	-14479
▁হয়ঃ	-14480
▁কলম্ব	-14481
ros	-14482
▁মূল্যের	-14483
▁concl	-14484
▁ছেলেদের	-14485
▁তালেবান	-14486
গাঁ	-14487
▁Amitabh	-14488
▁পার্কিং	-14489
লিন	-14490
▁ধোঁ	-14491
▁memories	-14492
▁caut	-14493
▁পাইলট	-14494
▁gained	-14495
পোর	-14496
▁হতাশা	-14497
▁খুঁজতে	-14498
▁পুরোটাই	-14499
▁Tok	-14500
▁compre	-14501
▁প্রথা	-14502
▁Indies	-14503
র্নি	-14504
▁মৌসুমে	-14505
▁রবার্ট	-14506
▁শ্রেণির	-14507
▁Naw	-14508
▁হেফাজ	-14509
▁অমিতাভ	-14510
▁উঠেছিল	-14511
▁সমাপ্তি	-14512
▁কিংবদন্ত	-14513
পাতি	-14514
▁ত্রাণ	-14515
▁ভবনের	-14516
▁অস্থায়ী	-14517
abled	-14518
chester	-14519
▁enjoying	-14520
▁infl	-14521
▁vast	-14522
▁বিএস	-14523
▁Without	-14524
▁facts	-14525
▁PS	-14526
▁sections	-14527
▁OS	-14528
▁Bazar	-14529
▁নির্ণয়	-14530
odes	-14531
▁Sah	-14532
▁equally	-14533
▁Hell	-14534
athy	-14535
▁তফ	-14536
▁জিনিষ	-14537
enth	-14538
▁উন্নতির	-14539
▁রান্নাঘর	-14540
গতির	-14541
▁emphas	-14542
বাহিনী	-14543
▁যথাক্রমে	-14544
▁chat	-14545
▁soci	-14546
বরণ	-14547
▁ক্রিকেটে	-14548
▁সুস্পষ্ট	-14549
বাড়	-14550
▁Empire	-14551
EM	-14552
icies	-14553
uzzaman	-14554
▁বিপর্যয়	-14555
▁সামগ্রিক	-14556
কীয়	-14557
নিস্ট	-14558
rates	-14559
▁Care	-14560
tenance	-14561
মুখী	-14562
▁Luck	-14563
▁Royal	-14564
▁scale	-14565
▁Youth	-14566
▁retire	-14567
endar	-14568
টেল	-14569
▁metal	-14570
▁সন্তানকে	-14571
▁ভরা	-14572
▁গুজরা	-14573
▁পুলিশে	-14574
▁Friends	-14575
▁সংখ্যার	-14576
▁ভালবাসেন	-14577
star	-14578
▁লিখুন	-14579
▁Iq	-14580
▁বলিল	-14581
▁বন্যা	-14582
ুজ্জামান	-14583
▁কোম্পানী	-14584
▁পরিব	-14585
▁বাচ্চারা	-14586
▁welcomed	-14587
▁দেশগুলোর	-14588
▁2)	-14589
▁সুখের	-14590
▁darkness	-14591
▁বিছানায়	-14592
বাবা	-14593
শায়	-14594
rav	-14595
েমে	-14596
িশনার	-14597
ৃক্ত	-14598
▁পন্	-14599
▁Arjun	-14600
▁উৎপন্ন	-14601
▁সংক্রাম	-14602
ষদ	-14603
▁harass	-14604
▁দূর্	-14605
▁মেক	-14606
▁করানো	-14607
▁wicket	-14608
▁নৈ	-14609
▁Article	-14610
▁coord	-14611
▁রেকর্	-14612
▁উদ্যান	-14613
▁সীমানা	-14614
▁Anyways	-14615
ান্তি	-14616
ইস	-14617
▁ঝর	-14618
roat	-14619
allam	-14620
lar	-14621
▁Card	-14622
▁নায়	-14623
▁ঘাটতি	-14624
▁সমর্থিত	-14625
▁nose	-14626
▁পাও	-14627
▁করণীয়	-14628
▁MS	-14629
▁কাই	-14630
▁(3)	-14631
▁পদের	-14632
▁গার্ড	-14633
▁হয়েই	-14634
▁Doctors	-14635
▁সোসাই	-14636
িয়র	-14637
▁Rich	-14638
▁আব্বাস	-14639
াত্ত্বিক	-14640
▁Haryana	-14641
▁শাসক	-14642
▁অক্ষর	-14643
বাংলাদেশ	-14644
urd	-14645
▁ইজ	-14646
▁Ocean	-14647
▁remind	-14648
▁affects	-14649
পত্রের	-14650
▁অফিসের	-14651
▁শতাধিক	-14652
▁তারপরেও	-14653
▁দৃশ্যমান	-14654
▁ইস্ট	-14655
▁আবদ্ধ	-14656
▁ঘূর্ণ	-14657
▁সিদ্দিক	-14658
▁normally	-14659
▁কায়	-14660
▁urban	-14661
▁ইলেক্ট্র	-14662
gi	-14663
icip	-14664
field	-14665
▁নিরী	-14666
equate	-14667
▁খোঁজে	-14668
ঘাট	-14669
্যারা	-14670
▁ম্যাচটি	-14671
▁স্বর্	-14672
উদ	-14673
▁obst	-14674
▁খবরে	-14675
encing	-14676
mortem	-14677
bration	-14678
▁প্রোফাইল	-14679
oos	-14680
▁ভয়ের	-14681
▁দ্বীপপু	-14682
▁Been	-14683
▁seeds	-14684
▁settle	-14685
▁অভিভাবক	-14686
▁scholars	-14687
▁ওষুধের	-14688
▁2008	-14689
▁shower	-14690
▁দ্রব্য	-14691
আরসি	-14692
▁আজাদ	-14693
▁skill	-14694
▁চালাচ্ছে	-14695
▁..	-14696
স্টিক	-14697
▁Chop	-14698
▁দিলো	-14699
IG	-14700
▁smoke	-14701
▁cul	-14702
▁Agency	-14703
্যাব	-14704
▁voted	-14705
free	-14706
▁olive	-14707
adian	-14708
jection	-14709
বোর্ড	-14710
ক্ষন	-14711
▁ঘোর	-14712
▁disag	-14713
স্কে	-14714
▁Ele	-14715
▁ভোটার	-14716
▁যন্ত্রণা	-14717
pted	-14718
▁voting	-14719
▁Sk	-14720
▁sle	-14721
▁মিত্র	-14722
▁লাগানো	-14723
▁সেগুলোর	-14724
▁ষষ্ঠ	-14725
কর্মীরা	-14726
19	-14727
▁অলি	-14728
assan	-14729
▁রুট	-14730
▁অবহ	-14731
▁parking	-14732
▁চেয়েছি	-14733
▁পশ	-14734
▁turns	-14735
och	-14736
▁struct	-14737
ethe	-14738
▁ভোল	-14739
▁semi	-14740
▁অপমান	-14741
▁Energy	-14742
▁উপযোগী	-14743
▁cautious	-14744
pret	-14745
ওলানা	-14746
▁applies	-14747
োমা	-14748
▁ডিল	-14749
lying	-14750
isal	-14751
▁রিচ	-14752
▁Agree	-14753
▁দলটি	-14754
▁Design	-14755
▁worker	-14756
▁chicken	-14757
irty	-14758
ীকরণ	-14759
▁Nav	-14760
▁Korean	-14761
▁ডেপুটি	-14762
shahi	-14763
▁Quader	-14764
▁profit	-14765
▁যাদব	-14766
▁FIR	-14767
াইজেশন	-14768
▁ক্যাথ	-14769
▁ODI	-14770
▁avail	-14771
▁বুঝলাম	-14772
▁finance	-14773
-_	-14774
▁করতেও	-14775
▁বিশ্বাসী	-14776
্পন	-14777
raine	-14778
▁মই	-14779
▁William	-14780
ৌশলী	-14781
▁এমনকী	-14782
▁সহিংসতা	-14783
abilities	-14784
▁Money	-14785
▁অভিহিত	-14786
▁ভোটে	-14787
▁stages	-14788
▁Yadav	-14789
▁কারিগ	-14790
▁Navy	-14791
▁মেজর	-14792
▁হলেই	-14793
▁Ins	-14794
Now	-14795
য়েত	-14796
▁ঘুমাতে	-14797
▁শ্রদ্ধ	-14798
▁লাফ	-14799
▁Belg	-14800
▁Gl	-14801
ller	-14802
▁নামেও	-14803
▁মূল্যে	-14804
▁ruled	-14805
▁কৃষ্ণ	-14806
▁output	-14807
▁সত্যের	-14808
▁বেঙ্গাল	-14809
নেই	-14810
▁বাধ	-14811
▁অর্জুন	-14812
▁স্ত্রীকে	-14813
▁চোপ	-14814
▁পাত্রে	-14815
▁সিরিজে	-14816
ommod	-14817
▁Fa	-14818
▁এগো	-14819
▁সান্ত	-14820
▁Customer	-14821
▁ব্যাকটের	-14822
);	-14823
ফত	-14824
▁Iqbal	-14825
▁বিরতি	-14826
▁সংখ্যাল	-14827
▁ফুস	-14828
নাট্য	-14829
▁Sign	-14830
▁চর্বি	-14831
▁তুষার	-14832
▁didnt	-14833
▁falls	-14834
▁ক্রমে	-14835
▁desired	-14836
▁edition	-14837
▁Er	-14838
ether	-14839
প্রায়	-14840
▁ocean	-14841
▁কার্ডের	-14842
▁Abbas	-14843
▁updates	-14844
▁fairly	-14845
▁কারখান	-14846
▁defeated	-14847
▁wave	-14848
▁পালা	-14849
▁mystery	-14850
▁vitamins	-14851
mal	-14852
▁Long	-14853
▁mankind	-14854
▁বিচ	-14855
▁shar	-14856
▁evalu	-14857
▁Bharat	-14858
্টের	-14859
rance	-14860
্যাক্স	-14861
▁Angeles	-14862
▁channels	-14863
▁কোর্টে	-14864
▁database	-14865
▁AD	-14866
▁হলিউ	-14867
▁Choose	-14868
▁uns	-14869
▁জটিলতা	-14870
▁ব্যাটিং	-14871
াব্য	-14872
▁merely	-14873
▁ange	-14874
ensity	-14875
▁ছোটো	-14876
▁মোড়	-14877
nan	-14878
আল্লাহ	-14879
▁aband	-14880
▁ফুলের	-14881
▁সংসার	-14882
▁সিম	-14883
▁অনুক	-14884
▁বোঝাতে	-14885
▁পাসপোর্ট	-14886
▁উৎক	-14887
▁Arun	-14888
▁কর্ণাট	-14889
▁Aamir	-14890
▁নিম্নরূপ	-14891
father	-14892
▁showing	-14893
▁দী	-14894
▁জেত	-14895
▁কালে	-14896
▁thinks	-14897
▁প্রতিকার	-14898
▁নিজেরাই	-14899
Re	-14900
▁আমিঃ	-14901
maker	-14902
▁Smith	-14903
▁দুজনকে	-14904
▁হইতেছে	-14905
াঙ্ক	-14906
▁magazine	-14907
▁ডেলি	-14908
▁অক্টোব	-14909
▁হইয়াছিল	-14910
▁মোর	-14911
ষ্কৃত	-14912
স্থলে	-14913
▁উচ্ছ	-14914
▁সজ্জিত	-14915
hematics	-14916
অধিনায়ক	-14917
▁deleted	-14918
▁লেগেছিল	-14919
▁Trade	-14920
▁নুরুল	-14921
▁তুলেছে	-14922
▁পোস্টের	-14923
▁প্রসঙ্গত	-14924
▁Inf	-14925
▁Vij	-14926
খানেক	-14927
▁হরমোন	-14928
▁স্টাফ	-14929
OM	-14930
▁১৯৩	-14931
▁branch	-14932
▁বলেছেনঃ	-14933
▁মর্যাদা	-14934
▁75	-14935
▁আধা	-14936
▁menu	-14937
ীয়তার	-14938
্টিভ	-14939
▁মিলবে	-14940
fox	-14941
▁walls	-14942
▁গৃ	-14943
ালয়	-14944
▁RAM	-14945
eless	-14946
idges	-14947
▁unto	-14948
▁weird	-14949
▁বিছানা	-14950
▁থাকতেন	-14951
.’	-14952
▁শিল্পে	-14953
▁রূপে	-14954
▁এপ	-14955
▁retired	-14956
▁Aksh	-14957
▁forum	-14958
▁প্রেরিত	-14959
ecess	-14960
নির্দেশ	-14961
▁drama	-14962
▁moder	-14963
▁Mosque	-14964
▁Mass	-14965
▁policies	-14966
▁Online	-14967
তাহলে	-14968
বানের	-14969
▁Help	-14970
▁করুক	-14971
▁ভাস	-14972
▁ইচ্ছুক	-14973
▁মাখন	-14974
▁নিষেধ	-14975
IB	-14976
ii	-14977
ডিপি	-14978
atiya	-14979
চারী	-14980
itzer	-14981
▁Things	-14982
▁versions	-14983
abi	-14984
▁Ken	-14985
▁gate	-14986
▁brings	-14987
▁থিয়েটার	-14988
""?"	-14989
▁মন্ত্রক	-14990
▁ওয়ানডে	-14991
▁ওহ	-14992
arya	-14993
শাসন	-14994
▁Shahe	-14995
essel	-14996
▁wors	-14997
▁কমেছে	-14998
▁হৃদয়ে	-14999
▁Cultural	-15000
igious	-15001
▁missed	-15002
ruck	-15003
▁জানুন	-15004
▁কোল	-15005
▁খাবেন	-15006
▁গল্পটি	-15007
▁অঙ্গীকার	-15008
দাই	-15009
▁ফুড	-15010
▁সিসি	-15011
▁ওবামা	-15012
▁সমঝোতা	-15013
▁discipl	-15014
erg	-15015
▁CM	-15016
▁Ast	-15017
▁Beg	-15018
▁Clin	-15019
RL	-15020
SA	-15021
▁wid	-15022
▁অসম	-15023
▁লিস্ট	-15024
▁entering	-15025
Acc	-15026
rer	-15027
▁মন্ত	-15028
▁Chopra	-15029
রাইট	-15030
▁Digital	-15031
াগ্র	-15032
▁বেড়েই	-15033
চেস্টার	-15034
▁adopted	-15035
pa	-15036
বিধি	-15037
▁visa	-15038
▁থাকুক	-15039
▁তুর্কি	-15040
▁nar	-15041
▁papers	-15042
▁জায়গাটা	-15043
▁পথের	-15044
▁focused	-15045
▁united	-15046
▁tourist	-15047
▁৪৫	-15048
ords	-15049
▁মাটির	-15050
▁দুপুরে	-15051
awan	-15052
▁Hig	-15053
▁কনস	-15054
▁খন্দকার	-15055
PA	-15056
▁মেসেজ	-15057
▁Mobile	-15058
▁Pacific	-15059
▁crimes	-15060
▁চুক্তিতে	-15061
hot	-15062
imal	-15063
▁নানান	-15064
▁সকালের	-15065
▁ফরি	-15066
ureau	-15067
▁divor	-15068
▁সেবার	-15069
▁ট্র্যাক	-15070
▁দেবী	-15071
▁গ্রিন	-15072
▁সকলেরই	-15073
▁clothing	-15074
ার্থীর	-15075
▁এটিতে	-15076
▁corner	-15077
সেই	-15078
ensus	-15079
▁Hill	-15080
▁furn	-15081
ugu	-15082
▁চাপের	-15083
▁কবর	-15084
▁Much	-15085
▁করিবেন	-15086
▁Id	-15087
▁Recently	-15088
াপড়া	-15089
▁ties	-15090
নেল	-15091
▁(3	-15092
long	-15093
▁উত্থ	-15094
▁Rajput	-15095
▁টেবিলে	-15096
▁লোকসভা	-15097
▁doubts	-15098
▁যাতায়	-15099
▁Rajshahi	-15100
▁2019.	-15101
হ্ম	-15102
▁ঝুল	-15103
▁সুলতান	-15104
▁মিলি	-15105
▁defeat	-15106
ীরের	-15107
▁Show	-15108
▁জানত	-15109
▁পাখ	-15110
জাজ	-15111
ফোনে	-15112
▁অরুণ	-15113
বর্ণ	-15114
ীতিক	-15115
▁ঘাড়	-15116
▁refugees	-15117
oons	-15118
াহীন	-15119
▁পলি	-15120
25	-15121
▁ত্বকে	-15122
▁closer	-15123
আস	-15124
▁Hab	-15125
▁aged	-15126
▁Drink	-15127
▁Northern	-15128
▁আইসিসি	-15129
▁Sushant	-15130
▁adjust	-15131
▁powers	-15132
▁Bhut	-15133
▁ভয়েস	-15134
▁চাপা	-15135
▁দণ্ড	-15136
▁Citiz	-15137
▁Putin	-15138
▁এইখানে	-15139
omach	-15140
▁reader	-15141
▁prosper	-15142
'-	-15143
▁সম্পৃক্ত	-15144
▁চোট	-15145
rina	-15146
▁anxiety	-15147
▁একাডেমি	-15148
▁MA	-15149
▁lit	-15150
illing	-15151
▁বলেননি	-15152
▁elderly	-15153
▁জনগণকে	-15154
▁পাঠানোর	-15155
ficulties	-15156
teen	-15157
▁কেট	-15158
zes	-15159
▁মহামারী	-15160
▁ব্যর্থতা	-15161
▁জনগোষ্ঠ	-15162
▁স্টুডিও	-15163
▁কমিউনিটি	-15164
AE	-15165
▁২০০৭	-15166
rently	-15167
▁ফখরুল	-15168
▁ডিজাইনার	-15169
▁তির	-15170
▁armed	-15171
▁scary	-15172
▁cabinet	-15173
level	-15174
মারের	-15175
▁আগুনের	-15176
হানি	-15177
▁ভীত	-15178
▁বিবিসি	-15179
▁টেস্টে	-15180
ুয়	-15181
▁সপ্তম	-15182
▁Rob	-15183
▁পারিনা	-15184
াবের	-15185
▁মধ্যেও	-15186
▁Sl	-15187
▁Island	-15188
▁centres	-15189
▁Blog	-15190
▁deleg	-15191
▁সহায়তার	-15192
▁কেনই	-15193
▁শেখা	-15194
meg	-15195
▁নিবিড়	-15196
ordingly	-15197
▁ভুলতে	-15198
adh	-15199
▁Rash	-15200
▁ডাবল	-15201
box	-15202
idays	-15203
▁tank	-15204
▁ঢুকতে	-15205
▁উন	-15206
▁yeah	-15207
▁টেকনোলজি	-15208
পুল	-15209
বিহীন	-15210
▁federal	-15211
▁কাজী	-15212
▁Legal	-15213
▁declined	-15214
PM	-15215
কুমার	-15216
▁উপত্য	-15217
▁Hassan	-15218
▁রক্ষার	-15219
▁পাউ	-15220
▁Cond	-15221
▁Prote	-15222
▁বাইবেলের	-15223
িশা	-15224
achal	-15225
ppers	-15226
▁অবসান	-15227
rics	-15228
▁বিগ	-15229
▁Sher	-15230
▁হচ্ছি	-15231
▁তিনবার	-15232
▁hosting	-15233
tr	-15234
▁hyp	-15235
▁পাত্র	-15236
▁মিনিটে	-15237
▁বৈষম্য	-15238
▁Adam	-15239
angana	-15240
ষ্টায়	-15241
▁Young	-15242
▁Mald	-15243
▁Vitamin	-15244
তুর	-15245
▁ধা	-15246
lose	-15247
▁exceed	-15248
▁পরিষেবার	-15249
▁রাজস্থান	-15250
স্ম	-15251
এসএস	-15252
iture	-15253
▁বৈঠকের	-15254
▁কলকাতায়	-15255
▁crops	-15256
▁গিয়েছি	-15257
▁wine	-15258
▁Anybody	-15259
ials	-15260
▁ইঞ্চি	-15261
▁সংগঠিত	-15262
▁adviser	-15263
▁captured	-15264
▁ought	-15265
▁mart	-15266
▁অবরোধ	-15267
▁নিদর্শন	-15268
▁দুইটা	-15269
▁আকাশের	-15270
▁belongs	-15271
▁বাপ	-15272
▁poems	-15273
▁পারতো	-15274
কিও	-15275
ীপে	-15276
ব্রি	-15277
▁wins	-15278
▁Akshay	-15279
bul	-15280
ফিউ	-15281
▁আর্দ্র	-15282
▁বিশুদ্ধ	-15283
▁kingdom	-15284
দক্ষ	-15285
▁shel	-15286
▁ঘুরতে	-15287
▁defend	-15288
▁দোকানে	-15289
nis	-15290
pre	-15291
টনের	-15292
▁Kim	-15293
▁paste	-15294
▁এমনিতেই	-15295
▁Code	-15296
▁Resp	-15297
fit	-15298
▁দিকেই	-15299
▁ফেলবে	-15300
san	-15301
▁asks	-15302
ার্সের	-15303
▁ভয়ংকর	-15304
▁রোনাল	-15305
▁ঝুঁকির	-15306
▁মাহবুব	-15307
▁হ্যারি	-15308
▁বিমানের	-15309
শাদ	-15310
▁Non	-15311
▁উদার	-15312
▁admit	-15313
বিশ্বাসী	-15314
▁pal	-15315
▁ren	-15316
্যস্ত	-15317
ভৌ	-15318
সুর	-15319
raham	-15320
▁ফ্রান্সে	-15321
▁Na	-15322
▁SM	-15323
▁camer	-15324
▁Whether	-15325
▁pron	-15326
▁wise	-15327
▁বুকে	-15328
বেলায়	-15329
▁stuck	-15330
▁পলাতক	-15331
▁সেদিকে	-15332
▁blocked	-15333
▁এবিষ	-15334
▁পেশায়	-15335
মাধ্যমের	-15336
▁আমান	-15337
▁ট্রি	-15338
▁volume	-15339
▁ক্ষেপণ	-15340
▁মেয়েটা	-15341
▁মেস	-15342
▁দীপিকা	-15343
▁বেই	-15344
টেক	-15345
▁যথার্থ	-15346
▁imprison	-15347
▁গ্রাহকরা	-15348
োড	-15349
▁silver	-15350
▁জানানোর	-15351
যুগ	-15352
শীয়	-15353
▁equipped	-15354
-0	-15355
15	-15356
▁rub	-15357
▁acts	-15358
দীপ	-15359
ভী	-15360
াহা	-15361
▁বিচিত্র	-15362
▁innings	-15363
▁মামলাটি	-15364
▁বিতর্কিত	-15365
▁স্পোর্টস	-15366
SD	-15367
সূত্র	-15368
▁praise	-15369
▁ডেলিভার	-15370
▁Expl	-15371
▁refers	-15372
▁শতাব্দী	-15373
রেট	-15374
▁heav	-15375
SC	-15376
আইআর	-15377
▁Bor	-15378
aling	-15379
▁বোতল	-15380
▁visiting	-15381
▁অ্যাকশন	-15382
▁Moreover	-15383
uv	-15384
▁হি	-15385
টাইম	-15386
▁লাগছিল	-15387
communic	-15388
োগ্রামের	-15389
▁facility	-15390
শাহ	-15391
▁উৎসর্গ	-15392
▁Advocate	-15393
▁জিনিসটা	-15394
burg	-15395
▁নাগাদ	-15396
ogether	-15397
▁প্রবাহিত	-15398
ুরো	-15399
▁DNA	-15400
▁উইন্ডো	-15401
isk	-15402
বিএ	-15403
সেট	-15404
্যিক	-15405
নীতির	-15406
▁লকডাউন	-15407
াবু	-15408
ঙ্গের	-15409
▁mort	-15410
▁Dri	-15411
ড়ের	-15412
াতেও	-15413
▁জিবি	-15414
▁stro	-15415
▁smoking	-15416
▁emotions	-15417
▁pleasant	-15418
▁Latin	-15419
▁সমন্বয়ে	-15420
▁print	-15421
▁tremend	-15422
▁Industry	-15423
ুচ	-15424
▁greet	-15425
▁extent	-15426
▁undert	-15427
▁কারাদণ্ড	-15428
ক্ষ্ম	-15429
▁pool	-15430
▁অক্ষম	-15431
▁এবারে	-15432
▁ল্যাব	-15433
বিট	-15434
▁(18	-15435
class	-15436
▁উইকিপি	-15437
▁highway	-15438
▁fasc	-15439
▁phenomen	-15440
▁মিডিয়ার	-15441
▁আমাদেরও	-15442
uine	-15443
▁সুবিধার	-15444
▁আমা	-15445
▁ইস্প	-15446
▁Based	-15447
▁Dhoni	-15448
▁Land	-15449
▁শুকনো	-15450
▁campus	-15451
▁sample	-15452
▁Ver	-15453
etheless	-15454
▁rainfall	-15455
▁মৃতের	-15456
ologist	-15457
তিহ্যবাহী	-15458
ধ্ব	-15459
▁দফতর	-15460
বৃদ্ধি	-15461
ব্যক্তি	-15462
▁বিক্রে	-15463
▁drivers	-15464
▁ফলাফলের	-15465
▁জৈব	-15466
জনদের	-15467
▁সম্মিল	-15468
▁রাজশাহী	-15469
arrass	-15470
▁সংকেত	-15471
▁সোর্স	-15472
aud	-15473
with	-15474
গণের	-15475
▁blind	-15476
▁বিভাগীয়	-15477
▁bread	-15478
ংকার	-15479
▁Linux	-15480
▁রেখেছি	-15481
▁Franc	-15482
▁শোনার	-15483
▁এডি	-15484
cutta	-15485
▁অসাম	-15486
াপিক্স	-15487
▁brown	-15488
▁পিএইচ	-15489
▁passing	-15490
▁পদ্ধতিটি	-15491
ুব্ধ	-15492
▁Gar	-15493
Wh	-15494
▁হযরত	-15495
▁আন্তঃ	-15496
▁weekend	-15497
▁ট্রায়	-15498
iano	-15499
্বুল	-15500
▁যখনই	-15501
▁জাপানে	-15502
▁হাসিনার	-15503
▁Scot	-15504
▁Ltd	-15505
▁Tokyo	-15506
▁bond	-15507
▁কাছেও	-15508
▁smiling	-15509
▁ছড়	-15510
▁দরজার	-15511
বীণ	-15512
▁ven	-15513
▁মাঝামা	-15514
কেলের	-15515
▁meals	-15516
▁বেশিদিন	-15517
▁lifetime	-15518
জিও	-15519
▁মডি	-15520
▁বর্জ্য	-15521
▁উহা	-15522
▁ইউনাইটেড	-15523
▁negoti	-15524
▁স্বার্থে	-15525
কুল	-15526
▁চুপচাপ	-15527
▁Complete	-15528
কিম	-15529
দেব	-15530
▁আদম	-15531
▁poly	-15532
▁কতক্ষণ	-15533
▁ওয়ার্ক	-15534
চলিত	-15535
▁auth	-15536
▁মহিলারা	-15537
বারই	-15538
▁প্রশ্নটা	-15539
pass	-15540
োরেট	-15541
▁Taj	-15542
▁শিল	-15543
▁painful	-15544
▁portion	-15545
▁নিয়েছিল	-15546
▁feedback	-15547
omas	-15548
▁Max	-15549
▁মেলে	-15550
▁input	-15551
শ্চিন্তা	-15552
▁উপরন্তু	-15553
হাম	-15554
ীপুর	-15555
▁Mayor	-15556
▁upper	-15557
▁ইন্ডাস্ট	-15558
▁facebook	-15559
member	-15560
▁stomach	-15561
▁গায়	-15562
▁medal	-15563
▁সুম	-15564
▁আর্টি	-15565
▁হৃদয়ের	-15566
ING	-15567
▁Ku	-15568
▁Dom	-15569
▁renew	-15570
▁paying	-15571
▁ক্লাসে	-15572
▁মাওলানা	-15573
▁attempts	-15574
bi	-15575
আলাইহি	-15576
LL	-15577
গেট	-15578
▁মৃ	-15579
▁পিছু	-15580
▁eligible	-15581
▁Robert	-15582
▁সদাপ্র	-15583
▁Dal	-15584
▁ছিলনা	-15585
▁লাগিল	-15586
▁অধিবেশ	-15587
▁Stadium	-15588
’,	-15589
▁ঘাম	-15590
▁liquid	-15591
▁causing	-15592
▁Est	-15593
▁জন্ত	-15594
▁tight	-15595
▁কলকাতার	-15596
▁স্টেশনে	-15597
াপে	-15598
গুলা	-15599
▁locked	-15600
▁vessel	-15601
▁হুই	-15602
▁কমবে	-15603
▁সন্দেহভা	-15604
▁Similar	-15605
াসীন	-15606
▁fold	-15607
▁hidden	-15608
▁অধিবেশন	-15609
▁magic	-15610
▁স্নায়	-15611
▁returns	-15612
▁employee	-15613
▁Inte	-15614
▁troub	-15615
▁34	-15616
▁htt	-15617
▁immense	-15618
▁সফলভাবে	-15619
ণ্য	-15620
▁ছেলেরা	-15621
MI	-15622
▁37	-15623
▁নিঃশ্বাস	-15624
▁Imam	-15625
▁collaps	-15626
▁আনোয়ার	-15627
▁strik	-15628
acle	-15629
▁Story	-15630
▁লাগার	-15631
▁পাঠায়	-15632
▁circuit	-15633
▁গ্রুপে	-15634
▁সমিতির	-15635
াবলি	-15636
▁Telugu	-15637
▁অন্যকে	-15638
▁পিক	-15639
▁Niger	-15640
▁বিচারের	-15641
▁সরবরাহের	-15642
িসহ	-15643
▁কাঠাম	-15644
▁hat	-15645
▁ডিফ	-15646
▁Atl	-15647
▁mel	-15648
▁Others	-15649
▁শ্রেণী	-15650
ওসি	-15651
▁সংঘাত	-15652
ুলিপি	-15653
▁scream	-15654
কিউ	-15655
▁cute	-15656
▁এক্সচে	-15657
বিএস	-15658
▁জার্নাল	-15659
▁পাহাড়ের	-15660
▁শ্ব	-15661
▁Sanjay	-15662
▁raining	-15663
▁Calcutta	-15664
▁অষ্ট	-15665
▁cried	-15666
▁Ras	-15667
▁Farm	-15668
াগার	-15669
▁ষড়	-15670
▁হাঁটতে	-15671
▁Brother	-15672
▁ভাগে	-15673
▁পাচ্ছ	-15674
▁আলিয়া	-15675
▁reduces	-15676
cium	-15677
▁ময়দা	-15678
ixel	-15679
াকরি	-15680
▁flat	-15681
▁প্রকৌশলী	-15682
▁নাহ	-15683
▁র্যা	-15684
▁Obaid	-15685
hana	-15686
▁গোলাম	-15687
▁Od	-15688
▁সস	-15689
▁formal	-15690
▁bother	-15691
▁দ্রুতই	-15692
▁বাইডেন	-15693
▁যিশুর	-15694
▁সৃষ্ট	-15695
▁ছেলেকে	-15696
▁যাপন	-15697
▁Mamata	-15698
▁তাৎপর্য	-15699
▁Rom	-15700
▁core	-15701
▁monthly	-15702
▁প্রদেশে	-15703
▁বিজ	-15704
▁burning	-15705
▁5,	-15706
▁stores	-15707
▁নম্বরে	-15708
▁zone	-15709
▁আগুনে	-15710
▁বোতাম	-15711
hum	-15712
▁Cooper	-15713
▁earned	-15714
▁সংঘটিত	-15715
ীক্ষা	-15716
▁প্লাগ	-15717
▁vaccines	-15718
থির	-15719
▁Pen	-15720
▁লোগ	-15721
▁noise	-15722
▁discover	-15723
▁kiss	-15724
▁raped	-15725
▁ন্যায্য	-15726
▁অনিয়	-15727
▁সিস্টেমে	-15728
▁hun	-15729
▁Moon	-15730
▁Andhra	-15731
▁রাজস্ব	-15732
▁শিরোপা	-15733
িগার	-15734
▁রুজ	-15735
▁নামাজ	-15736
ুখে	-15737
▁Khal	-15738
▁উপেক্ষা	-15739
▁quantity	-15740
ূদ	-15741
ফির	-15742
▁toile	-15743
▁Din	-15744
▁গবেষক	-15745
▁হোস্টিং	-15746
▁মিশ্রণটি	-15747
▁cream	-15748
▁Sultan	-15749
luding	-15750
▁tears	-15751
বক	-15752
emen	-15753
িশ্চ	-15754
▁ইংরেজী	-15755
▁ঘোষণার	-15756
▁অস্ত্রোপ	-15757
ষ্প	-15758
terol	-15759
▁টেকনিক	-15760
▁ঈশ্বরকে	-15761
▁expenses	-15762
▁অনেকক্ষণ	-15763
-20	-15764
▁Rahim	-15765
▁settings	-15766
hent	-15767
াক্ষিক	-15768
▁dying	-15769
নগর	-15770
▁roof	-15771
▁শহরটি	-15772
▁অমন	-15773
▁Sit	-15774
যাত্রা	-15775
▁জানিস	-15776
▁বাসের	-15777
▁vary	-15778
-5	-15779
েলায়	-15780
▁Books	-15781
▁প্রভুর	-15782
▁হের	-15783
▁খ্রিস্টা	-15784
▁Temple	-15785
▁জ্ঞানের	-15786
▁Cox	-15787
▁২০০১	-15788
▁genuine	-15789
▁সাঁতার	-15790
▁উল্লিখিত	-15791
ভাইরাস	-15792
▁প্রযোজনা	-15793
▁সুইজার	-15794
▁হোটেলের	-15795
▁ভল	-15796
▁ath	-15797
▁panic	-15798
▁পেরেছেন	-15799
▁দুর্বলতা	-15800
▁possess	-15801
োসফট	-15802
▁Medic	-15803
▁লিভার	-15804
▁fright	-15805
তঃ	-15806
দশ	-15807
▁বোম	-15808
▁প্রবীণ	-15809
▁Culture	-15810
কষ্ট	-15811
▁কোয়াল	-15812
▁পাউন্ড	-15813
▁Federal	-15814
▁শুকিয়ে	-15815
otes	-15816
যুদ্ধে	-15817
▁সংস্থাটি	-15818
▁Cur	-15819
▁রিয়	-15820
ডব্লিউ	-15821
▁imposed	-15822
▁tickets	-15823
স্বাস্থ্য	-15824
▁বেত	-15825
দ্দীন	-15826
▁epis	-15827
▁paint	-15828
▁opposed	-15829
▁chain	-15830
▁জাহাঙ্গ	-15831
পিএস	-15832
▁তারপরেই	-15833
▁ক্রিসমাস	-15834
▁রুপ	-15835
▁toll	-15836
▁পরিবহণ	-15837
▁গ্যাসের	-15838
▁overse	-15839
▁reducing	-15840
▁BCCI	-15841
▁	-15842
e	-15843
া	-15844
t	-15845
ে	-15846
র	-15847
a	-15848
o	-15849
i	-15850
n	-15851
্	-15852
s	-15853
ি	-15854
r	-15855
ন	-15856
h	-15857
ক	-15858
l	-15859
ত	-15860
য	-15861
ব	-15862
d	-15863
স	-15864
ম	-15865
u	-15866
c	-15867
ল	-15868
প	-15869
m	-15870
.	-15871
়	-15872
y	-15873
ু	-15874
f	-15875
।	-15876
g	-15877
p	-15878
দ	-15879
w	-15880
ট	-15881
আ	-15882
এ	-15883
,	-15884
হ	-15885
ো	-15886
ই	-15887
b	-15888
জ	-15889
ছ	-15890
শ	-15891
v	-15892
গ	-15893
চ	-15894
ী	-15895
"	-15896
ভ	-15897
k	-15898
ও	-15899
থ	-15900
A	-15901
অ	-15902
ষ	-15903
খ	-15904
I	-15905
ড	-15906
ধ	-15907
T	-15908
ং	-15909
?	-15910
উ	-15911
ণ	-15912
'	-15913
B	-15914
S	-15915
ফ	-15916
-	-15917
H	-15918
C	-15919
M	-15920
W	-15921
P	-15922
!	-15923
ূ	-15924
0	-15925
1	-15926
ৃ	-15927
’	-15928
ঠ	-15929
)	-15930
x	-15931
D	-15932
(	-15933
ঁ	-15934
ঘ	-15935
N	-15936
j	-15937
:	-15938
ঙ	-15939
2	-15940
R	-15941
E	-15942
G	-15943
F	-15944
L	-15945
O	-15946
ঞ	-15947
q	-15948
১	-15949
Y	-15950
z	-15951
K	-15952
J	-15953
০	-15954
U	-15955
[...]
